// tvm target: c -keys=riscv64,cpu -device=riscv64
#define TVM_EXPORTS
#define TVM_DLL __attribute__((visibility("default")))
#include <stddef.h>
#include <stdint.h>
#include <stdio.h>
#include <stdlib.h>
#include <math.h>

#ifdef __cplusplus
extern "C" {
#endif
static const float __attribute__((section(".rodata.tvm"), aligned(16))) fused_nn_contrib_conv2d_NCHWc_constant[6] = {
    0x1.91e5eap-3, 0x1.608d94p-4, 0x1.56dfp-3, 0x1.34999ap-12, 0x1.cf228p-6, -0x1.0fd8fep-3
};
#ifdef __cplusplus
}  // extern "C"
#endif

#ifdef __cplusplus
extern "C" {
#endif
static const float __attribute__((section(".rodata.tvm"), aligned(16))) fused_constant[150] = {
    0x1.49079ep-3, -0x1.fdc0dap-5, 0x1.ec1e9ap-4, 0x1.b6d60ep-4, 0x1.1ef4bap-3, 0x1.fd088p-6, -0x1.2808a6p-4, 0x1.95ba1ap-3, 
    -0x1.f57a9ap-4, -0x1.bba31ap-6, -0x1.52acap-4, 0x1.79bd06p-4, 0x1.42c71ap-5, 0x1.3411cep-7, -0x1.f5f24p-4, -0x1.950676p-3, 
    0x1.13695p-3, 0x1.376156p-3, -0x1.3e8adep-3, 0x1.0c3f3p-3, -0x1.170f1ep-3, 0x1.be9aa6p-5, 0x1.baa7cep-5, -0x1.b459e6p-5, 
    -0x1.a83454p-4, -0x1.7e5316p-3, -0x1.d8d1eep-4, -0x1.027c7ep-3, -0x1.7ee6aep-3, -0x1.3b5b94p-4, -0x1.f393a6p-5, 0x1.ecf4e6p-4, 
    -0x1.82891ep-3, 0x1.f0439ap-7, -0x1.b393e6p-5, -0x1.e0f734p-8, -0x1.8a826p-4, -0x1.1762ap-4, 0x1.d05c4p-4, 0x1.ecc19ap-10, 
    -0x1.bbe62ep-4, -0x1.21d0fap-4, -0x1.017a86p-4, -0x1.61b8cep-4, -0x1.97174ep-4, -0x1.96299ap-4, -0x1.c84bdap-5, 0x1.8f106p-3, 
    0x1.3057dap-3, -0x1.ba578p-5, -0x1.48fcdp-3, 0x1.9dd714p-4, 0x1.93900ap-3, -0x1.7b7c06p-3, -0x1.46f2p-8, 0x1.b6fb5ap-4, 
    0x1.af95e6p-6, -0x1.d8b18p-4, -0x1.ff0b4ep-4, 0x1.e6584ep-6, -0x1.b47e2ep-4, 0x1.071546p-3, 0x1.290c8ep-3, -0x1.4836a6p-4, 
    -0x1.6faeep-3, 0x1.8f22a6p-3, 0x1.6f7ddep-3, -0x1.0f37p-5, 0x1.aedb14p-4, 0x1.2fa746p-4, -0x1.3ebf7p-3, 0x1.2f21b4p-6, 
    -0x1.4d0614p-3, 0x1.e2f7b4p-6, -0x1.43a8cep-5, 0x1.e48f9ap-5, 0x1.2f71b4p-5, 0x1.68cf34p-3, 0x1.9370d4p-3, -0x1.66f06ep-4, 
    0x1.ecfba6p-5, -0x1.10a69ap-5, -0x1.53849ap-4, 0x1.19d1cap-3, 0x1.edccd4p-4, 0x1.971a66p-8, -0x1.58ce94p-3, -0x1.cf7f8ep-4, 
    0x1.fba7cep-6, -0x1.3c48p-3, -0x1.d2625ap-4, -0x1.71ec9ep-3, 0x1.84c02ep-3, -0x1.b20b2p-4, -0x1.140b14p-4, -0x1.81e49ap-6, 
    0x1.114a9ap-7, -0x1.6b26p-8, 0x1.d3034ep-4, 0x1.4c14b6p-3, 0x1.f4a08p-6, 0x1.954f36p-3, 0x1.efb5c6p-4, 0x1.70278p-3, 
    0x1.6747f4p-3, -0x1.7bda66p-4, 0x1.100cep-4, 0x1.b187p-6, 0x1.123114p-4, -0x1.73827p-3, 0x1.83703ap-3, 0x1.5c14b4p-6, 
    0x1.3f2fc6p-3, 0x1.0257ep-3, 0x1.00243ap-4, -0x1.6a824p-4, 0x1.957e46p-4, 0x1.71ac76p-3, 0x1.301054p-4, -0x1.43ba9p-3, 
    0x1.77669ap-3, 0x1.e74906p-4, 0x1.460434p-4, -0x1.f47134p-5, -0x1.1df34ep-4, 0x1.19a274p-3, 0x1.e1dfe6p-6, 0x1.32454ep-6, 
    -0x1.e4972ep-4, -0x1.4eb334p-13, -0x1.23914ep-3, -0x1.7c14cep-3, -0x1.ae8566p-6, 0x1.56530ep-3, 0x1.063abap-4, -0x1.80e8cep-3, 
    -0x1.58c14p-3, 0x1.44ceb4p-3, -0x1.3a56e6p-4, 0x1.0016dap-5, 0x1.120866p-8, 0x1.19c58ap-3, 0x1.ff59c6p-4, -0x1.958ec6p-3, 
    -0x1.32406ep-3, -0x1.18d55ep-3, -0x1.dda2eep-4, -0x1.62724p-4, -0x1.039db4p-4, -0x1.0945c6p-3
};
#ifdef __cplusplus
}  // extern "C"
#endif

#ifdef __cplusplus
extern "C" {
#endif
static const float __attribute__((section(".rodata.tvm"), aligned(16))) fused_nn_contrib_conv2d_NCHWc_constant_1[16] = {
    -0x1.a435b6p-6, -0x1.912316p-5, -0x1.49be7p-5, 0x1.22831p-4, 0x1.a26102p-6, -0x1.38ec66p-6, 0x1.05e836p-4, -0x1.ff6aecp-5, 
    -0x1.c41eb8p-6, -0x1.65b34cp-5, -0x1.22178p-4, -0x1.b82b64p-6, -0x1.2883e4p-6, 0x1.b59626p-5, 0x1.0db2f4p-10, -0x1.713b9cp-5
};
#ifdef __cplusplus
}  // extern "C"
#endif

#ifdef __cplusplus
extern "C" {
#endif
static const float __attribute__((section(".rodata.tvm"), aligned(16))) fused_constant_1[2400] = {
    0x1.231fc4p-5, 0x1.26b176p-4, -0x1.663afp-10, -0x1.0cb6bp-4, -0x1.42e794p-4, 0x1.9702a4p-5, -0x1.394482p-4, -0x1.03834cp-4, 
    -0x1.84ce58p-5, 0x1.75de8cp-6, -0x1.fd32ap-6, -0x1.779756p-6, -0x1.92d39ap-6, 0x1.af4244p-5, 0x1.1ebfcap-4, 0x1.d55e18p-6, 
    0x1.e5407ep-7, 0x1.bb46d2p-5, -0x1.1ea0a2p-6, -0x1.218df6p-4, 0x1.0aecdp-4, 0x1.bf4148p-5, -0x1.2b438cp-6, 0x1.30695p-5, 
    -0x1.b57ddcp-7, -0x1.b7c098p-5, -0x1.dcf58ep-6, 0x1.cfa446p-5, -0x1.50a0a6p-7, -0x1.a5fc8cp-6, -0x1.1b420ep-4, -0x1.0199e6p-6, 
    -0x1.6c044ap-5, -0x1.e57946p-5, -0x1.542deap-5, -0x1.b16b36p-5, 0x1.67f0f4p-6, -0x1.d4616ep-6, -0x1.9f175cp-7, 0x1.3aad32p-4, 
    0x1.422664p-4, 0x1.ca2b6ap-5, -0x1.88bc94p-5, -0x1.1e5f7p-4, 0x1.0f85aap-8, -0x1.0ba922p-6, -0x1.d1aafep-5, -0x1.4d576ep-5, 
    -0x1.662ca2p-5, 0x1.453c78p-5, 0x1.58d48ep-5, -0x1.5312c2p-5, -0x1.8c4abp-7, -0x1.0c264cp-7, -0x1.44372ap-10, 0x1.3aa4c4p-4, 
    0x1.e70552p-7, 0x1.54ddbap-5, -0x1.4e5908p-4, -0x1.65a1eep-6, -0x1.26cc8ap-4, -0x1.2f4732p-4, 0x1.820efap-5, -0x1.d30f76p-5, 
    -0x1.3ae2b8p-4, 0x1.30ce7ap-4, -0x1.83ad7ep-11, -0x1.d8a1b2p-10, 0x1.6cd07ap-5, 0x1.16060cp-6, 0x1.404c04p-4, -0x1.34863p-5, 
    -0x1.eddddep-5, -0x1.9e53e4p-6, 0x1.2015e4p-7, 0x1.1c2856p-6, 0x1.37a996p-4, -0x1.1cd22p-8, -0x1.4856dp-4, -0x1.05a27ep-4, 
    0x1.33056ep-7, 0x1.3d3ec4p-4, -0x1.803dc2p-6, 0x1.741ac2p-5, -0x1.a37edcp-6, 0x1.816a44p-7, 0x1.22940ap-4, 0x1.625ep-6, 
    0x1.b5aa56p-5, -0x1.101aa2p-6, 0x1.3c6c96p-5, 0x1.d59b6ep-5, -0x1.1c872p-4, 0x1.10fd84p-5, 0x1.1e9f2ap-5, 0x1.143628p-6, 
    0x1.429062p-7, 0x1.bf6874p-5, -0x1.4392bep-5, 0x1.df5b02p-5, -0x1.47c8aap-9, 0x1.9c14acp-8, 0x1.f4d69p-5, -0x1.4be536p-7, 
    0x1.93d8d8p-5, -0x1.1cd8bep-5, 0x1.bad4b2p-5, -0x1.18c066p-5, 0x1.45f53ap-4, 0x1.656accp-5, -0x1.9b8f2cp-7, -0x1.bbb184p-5, 
    0x1.7f1c6ep-6, 0x1.2bb864p-4, 0x1.21514ap-5, -0x1.e2dbb6p-8, -0x1.183748p-4, -0x1.30f42ep-9, 0x1.49efa8p-5, 0x1.4dccdcp-4, 
    0x1.48adb8p-4, -0x1.9c516ap-9, 0x1.44e7e6p-4, -0x1.b01c06p-7, -0x1.805236p-9, 0x1.3c789ep-4, 0x1.1f89b4p-7, -0x1.b16e52p-5, 
    -0x1.91082ap-6, -0x1.be9e82p-7, -0x1.586dep-7, 0x1.580ap-5, -0x1.a1db04p-8, 0x1.a874ecp-5, 0x1.3563f2p-5, 0x1.6780aep-5, 
    0x1.e1683ep-5, -0x1.1814p-6, -0x1.c26bb2p-7, 0x1.769cfp-5, 0x1.362244p-4, 0x1.bc4134p-6, -0x1.5231ap-5, -0x1.ff6816p-5, 
    0x1.194d12p-4, -0x1.e12e8ep-13, 0x1.3ea496p-9, -0x1.369b6ep-4, -0x1.9e8bc2p-5, -0x1.61a04ep-5, 0x1.19e4eep-4, -0x1.d0f6cp-6, 
    0x1.1bd026p-4, -0x1.569e06p-8, -0x1.f7da0ep-8, -0x1.0ef01p-5, -0x1.996c86p-6, -0x1.4221eap-4, -0x1.e1c4cap-5, 0x1.55bc6ep-6, 
    -0x1.0d2c9ep-5, 0x1.08a1fap-4, -0x1.236d94p-9, -0x1.288c6ep-4, 0x1.776b06p-5, 0x1.ded9dcp-7, -0x1.75d15cp-6, 0x1.79f3b4p-6, 
    -0x1.12ce4ap-5, -0x1.efc822p-5, -0x1.b6a6b2p-6, 0x1.3477b6p-7, 0x1.99b4e8p-6, 0x1.330f36p-5, 0x1.4d8608p-7, -0x1.8567a4p-5, 
    -0x1.e6399p-5, -0x1.406b7ap-4, 0x1.df864ep-8, 0x1.e8907p-5, -0x1.098c34p-10, -0x1.bcf9d4p-5, 0x1.4311d8p-6, 0x1.db848ap-5, 
    -0x1.2f863ap-4, -0x1.23a9ecp-6, -0x1.7865fep-5, 0x1.2e41acp-7, 0x1.04e6bap-5, 0x1.350632p-4, 0x1.57074p-5, -0x1.9bdp-6, 
    0x1.0ae776p-6, -0x1.238746p-4, 0x1.e0a11p-7, -0x1.0d3ae8p-5, 0x1.2d543p-6, 0x1.99a4fcp-6, -0x1.e11e78p-5, -0x1.9d372ep-7, 
    0x1.7e9bacp-5, -0x1.c4edb4p-5, 0x1.b6308cp-6, -0x1.ab11ep-6, 0x1.7f98c8p-6, 0x1.4055cap-4, 0x1.ee538p-8, 0x1.10ac7ep-4, 
    -0x1.74f802p-5, -0x1.59bce8p-5, 0x1.83b54p-6, -0x1.b744f4p-5, 0x1.3f17d6p-5, 0x1.ae086cp-5, -0x1.b9db12p-5, 0x1.1bb79ep-7, 
    0x1.38d27ap-6, -0x1.de481ep-7, -0x1.a2f77cp-5, -0x1.fd4748p-6, 0x1.02cb06p-6, -0x1.ec20c6p-11, -0x1.270d2p-8, -0x1.5414dep-5, 
    0x1.d94ccap-5, 0x1.a13db2p-5, -0x1.4d490ap-4, -0x1.d27b54p-8, -0x1.d9c4fap-5, 0x1.34d078p-7, -0x1.d9dc4ap-5, -0x1.565056p-5, 
    0x1.503fdap-5, 0x1.f2b5a8p-5, 0x1.aee23ep-7, -0x1.12f1f6p-4, 0x1.24173p-4, 0x1.7b4c3p-6, -0x1.4e7a2ap-5, -0x1.43a828p-6, 
    0x1.ab9c26p-5, 0x1.71d33p-5, 0x1.9344eep-6, 0x1.2311e6p-4, 0x1.a33c7p-5, 0x1.1327e6p-4, -0x1.8b31dp-6, -0x1.a5b9eap-6, 
    0x1.f597f8p-5, -0x1.86fd4cp-5, -0x1.ce48bcp-6, 0x1.6ff98p-7, 0x1.935e2p-5, -0x1.7b62aep-6, 0x1.b3306ap-5, 0x1.213138p-5, 
    0x1.66f362p-5, -0x1.ea68d8p-7, -0x1.7ad5dp-5, 0x1.2aee86p-4, 0x1.42f24ep-5, 0x1.810f98p-5, 0x1.042b3p-4, 0x1.449ac8p-5, 
    0x1.36a7cp-4, -0x1.44a8eap-4, 0x1.82d878p-5, 0x1.e7fbecp-5, 0x1.07bd72p-4, 0x1.e5efep-5, -0x1.479a2cp-4, 0x1.07644cp-4, 
    0x1.267fb4p-4, -0x1.56c6dap-7, -0x1.3ad49ap-5, 0x1.c5a8aep-8, 0x1.d11a2p-5, -0x1.0286e8p-5, 0x1.79d026p-6, -0x1.3682d8p-5, 
    -0x1.299756p-4, 0x1.35704cp-4, -0x1.e2dc3ep-5, 0x1.3bec6ep-4, 0x1.844f14p-6, 0x1.7d6112p-6, -0x1.4f502ap-6, 0x1.94439ap-7, 
    -0x1.f26d02p-5, 0x1.67fb48p-5, -0x1.039e5ap-4, -0x1.19dd12p-4, 0x1.0e13f4p-5, -0x1.7899ccp-8, -0x1.af4248p-5, -0x1.d26328p-6, 
    0x1.90a988p-7, 0x1.e96138p-5, -0x1.e5d67ap-5, -0x1.ea2f52p-6, 0x1.093ad2p-4, 0x1.2aa24ap-6, -0x1.81dd84p-6, -0x1.37e43ep-5, 
    0x1.081eeap-4, 0x1.36d158p-4, -0x1.ca998ep-6, -0x1.13c64cp-6, 0x1.43774ap-6, -0x1.b2cd78p-5, 0x1.7c363cp-10, -0x1.f3125ep-6, 
    -0x1.533a22p-6, 0x1.5d46c4p-5, -0x1.abb04cp-5, 0x1.dc652ep-5, 0x1.2b25c2p-4, -0x1.175e92p-7, -0x1.54d4cap-9, -0x1.17a55cp-6, 
    -0x1.553ca6p-6, 0x1.ad006ep-5, 0x1.39b514p-4, -0x1.4021e4p-8, -0x1.eac6fcp-5, -0x1.20260cp-4, -0x1.0a5892p-5, 0x1.4993dcp-5, 
    0x1.72338ap-5, 0x1.7d1d58p-5, 0x1.dd0db4p-5, -0x1.ffdd76p-5, -0x1.2df94ap-5, -0x1.f7d05p-5, 0x1.71b59cp-5, -0x1.39b1e4p-4, 
    -0x1.43330ep-4, -0x1.eac03p-5, -0x1.3c59cp-4, 0x1.257dep-4, 0x1.8f78bcp-8, 0x1.0effd6p-6, 0x1.456dfap-4, -0x1.3dcb02p-4, 
    -0x1.c69924p-5, 0x1.605c04p-7, 0x1.58b166p-9, -0x1.d4d49cp-5, -0x1.40a3ep-5, 0x1.c53dc2p-6, 0x1.ef92f6p-5, 0x1.ec826ep-9, 
    -0x1.babacap-5, -0x1.1b5f5cp-6, -0x1.e47f1p-7, -0x1.3a0e4cp-6, -0x1.22a882p-4, 0x1.4a9dccp-5, 0x1.51ad1cp-7, 0x1.1862dap-5, 
    0x1.b13b9cp-5, 0x1.fda3bap-5, 0x1.400b26p-5, 0x1.13d58ep-4, -0x1.9990dcp-5, 0x1.82e73ep-5, 0x1.0cd894p-4, -0x1.938f7p-5, 
    0x1.5be35ep-7, 0x1.6b1f48p-8, -0x1.f434ecp-6, 0x1.e9c032p-5, 0x1.307568p-4, -0x1.32e762p-5, 0x1.4c1e0ep-4, -0x1.bff9dap-6, 
    -0x1.21cafap-4, 0x1.10109ep-4, -0x1.757f6ep-5, 0x1.0ddc9ep-5, -0x1.d62fc4p-6, -0x1.eea48p-8, 0x1.4d0074p-6, -0x1.21e4aep-4, 
    -0x1.112c5cp-7, 0x1.0143fcp-5, 0x1.ab4a5p-5, 0x1.4dda9ep-8, 0x1.f83acap-5, 0x1.1ac80cp-4, -0x1.204974p-5, 0x1.04ecfap-6, 
    0x1.28ef58p-6, 0x1.199538p-5, 0x1.bf878ap-10, -0x1.296434p-5, 0x1.26d33p-6, -0x1.5d25c8p-5, -0x1.129edap-5, -0x1.46c792p-4, 
    0x1.8d5506p-7, -0x1.2ff2fap-4, 0x1.f88a9ep-6, -0x1.9a1f04p-11, 0x1.d7d8fp-5, 0x1.07522cp-4, 0x1.3eadbap-11, 0x1.1159e4p-4, 
    0x1.ca4b2cp-5, -0x1.30b044p-5, -0x1.01aab6p-4, -0x1.83b098p-8, 0x1.68a766p-6, -0x1.2c723ep-5, -0x1.c6e72ep-5, -0x1.0645b8p-4, 
    -0x1.46a508p-4, 0x1.49dd3ap-6, -0x1.7c2174p-5, -0x1.ac646ap-5, 0x1.11304ap-4, -0x1.b12382p-5, -0x1.f3dc4p-6, -0x1.3d5b9ep-7, 
    -0x1.74ac0ep-5, -0x1.1172fep-4, 0x1.b4a5p-9, -0x1.09b074p-7, -0x1.d6c29ep-5, 0x1.6625c6p-5, 0x1.fb5762p-7, -0x1.e7f644p-7, 
    -0x1.3b479ep-4, 0x1.29623ep-5, -0x1.e15d0ep-6, -0x1.4d2c62p-8, 0x1.1efa0ep-5, 0x1.6277ccp-9, -0x1.5b2d06p-5, -0x1.18219ap-4, 
    0x1.40c32ep-4, 0x1.1434ep-5, 0x1.ce474ep-6, 0x1.d34714p-6, 0x1.7cd34p-5, -0x1.338172p-4, 0x1.4848dap-6, -0x1.28e472p-6, 
    0x1.f2d318p-7, 0x1.1ac8e2p-4, -0x1.fb05p-8, 0x1.223b84p-6, -0x1.f79f44p-5, 0x1.3eaebp-5, 0x1.c2f60cp-5, -0x1.91047cp-6, 
    0x1.1ff038p-4, 0x1.e19d32p-7, -0x1.722394p-6, -0x1.85dc52p-5, 0x1.3cc8fep-5, -0x1.6b4ae2p-9, -0x1.6967ecp-5, -0x1.3a42dcp-4, 
    -0x1.161c7ap-4, 0x1.59984ep-6, 0x1.a65af8p-6, -0x1.3a3d54p-6, -0x1.377464p-4, -0x1.1038fcp-5, -0x1.fb405cp-6, -0x1.3f662ap-4, 
    0x1.9e6134p-7, 0x1.08eb3ap-5, -0x1.4326cp-4, 0x1.de3336p-7, 0x1.1d36bep-4, -0x1.1a8c16p-4, 0x1.ace096p-7, 0x1.6589d8p-7, 
    0x1.8a421p-5, -0x1.9cf3fap-5, 0x1.f134a2p-5, -0x1.0138d4p-4, 0x1.ea2bbcp-6, -0x1.c305fep-5, 0x1.9b0b3ep-5, 0x1.3c804ep-6, 
    0x1.3dbf5ap-4, 0x1.473478p-7, 0x1.79024ep-8, -0x1.2172d2p-6, 0x1.4777eap-6, -0x1.21d99ep-5, 0x1.e9dd5ep-5, -0x1.03aa8ap-6, 
    0x1.756beap-6, 0x1.3cd2fcp-4, -0x1.1134b4p-4, -0x1.211594p-4, -0x1.18efa2p-4, -0x1.883192p-5, -0x1.95b31ap-6, 0x1.2c9b22p-8, 
    0x1.57e7eep-5, 0x1.1ce89ap-4, -0x1.31959p-6, 0x1.971c1ep-5, -0x1.a701a8p-5, -0x1.2d390ap-4, -0x1.461358p-4, 0x1.195264p-6, 
    -0x1.1878fcp-4, -0x1.69bc98p-7, 0x1.22f67ep-4, -0x1.603dd8p-5, -0x1.595e6ap-7, 0x1.75ba6p-6, 0x1.15603ep-4, 0x1.fbf97ap-5, 
    0x1.421b18p-6, -0x1.5fa5bp-7, -0x1.1e6146p-5, -0x1.a65538p-12, -0x1.2921aap-5, 0x1.da2392p-6, -0x1.3178c8p-5, -0x1.46e15p-6, 
    -0x1.e9bc3cp-8, 0x1.b8e916p-5, 0x1.237c2ep-4, -0x1.f7818cp-7, 0x1.428eecp-4, 0x1.153c56p-5, 0x1.89731ap-5, 0x1.35590ep-4, 
    -0x1.db2e08p-6, -0x1.dae68cp-8, -0x1.49f15ap-4, -0x1.d8606p-7, 0x1.f24a1ap-5, -0x1.8c78acp-5, -0x1.82b20cp-6, 0x1.8bc89ep-7, 
    -0x1.47084cp-11, 0x1.33ee4cp-6, 0x1.1c2e1p-4, -0x1.70ec72p-6, -0x1.df8a3p-5, 0x1.0aaba6p-6, 0x1.3c6a86p-4, 0x1.2b4f88p-4, 
    0x1.b313fp-8, 0x1.39f416p-4, 0x1.2dc4p-4, -0x1.755bcp-9, -0x1.39ab1ap-4, -0x1.ae7f1ep-6, -0x1.28b19p-4, 0x1.273faep-5, 
    0x1.0c55dcp-4, 0x1.3c7f4ap-6, -0x1.95444ep-7, -0x1.06478p-5, -0x1.014f3p-7, -0x1.060dfap-14, -0x1.9b772p-6, -0x1.1b2114p-5, 
    0x1.f625dcp-5, 0x1.bf528cp-7, -0x1.3e88b8p-5, -0x1.33c0b8p-5, -0x1.e76eb6p-5, 0x1.3cc05cp-4, 0x1.1d2124p-4, 0x1.823994p-6, 
    -0x1.11cf44p-4, -0x1.3811d6p-4, -0x1.65d37ep-7, -0x1.e57eap-6, -0x1.7e0e16p-5, 0x1.1a54dap-7, -0x1.3de37cp-7, 0x1.0f0f3p-6, 
    -0x1.47fbe6p-6, -0x1.f565fcp-5, 0x1.944edep-6, -0x1.c729a8p-5, -0x1.07bdc8p-5, -0x1.3b32c4p-7, 0x1.4473d6p-6, -0x1.95e208p-5, 
    -0x1.7cd43p-6, 0x1.97d12ep-8, -0x1.6dc704p-5, 0x1.49e33ep-4, 0x1.0142dcp-6, 0x1.3d643p-9, 0x1.3d8d42p-6, -0x1.efa66ep-6, 
    -0x1.f67824p-6, 0x1.465c84p-4, 0x1.ad50a6p-6, -0x1.55f5bep-6, 0x1.05de8ap-7, -0x1.c34d02p-5, -0x1.26d79p-11, -0x1.470072p-4, 
    -0x1.79c23ap-5, 0x1.4d54f6p-6, 0x1.9de86cp-5, 0x1.4540fap-5, -0x1.4820d8p-5, -0x1.69d07p-5, -0x1.abbdd4p-7, -0x1.fb495cp-5, 
    0x1.7abbc4p-5, -0x1.32ea5cp-4, 0x1.0fc76ap-5, -0x1.1c84f2p-4, 0x1.339c3ap-4, 0x1.31c492p-4, -0x1.42c7fcp-5, -0x1.2aaf7ap-6, 
    -0x1.b3cecp-7, -0x1.6e0f46p-9, -0x1.e08d8p-6, 0x1.619f98p-6, 0x1.108e2p-6, 0x1.2ec844p-4, 0x1.c958c2p-5, 0x1.3424f6p-6, 
    0x1.2751eap-4, 0x1.20ddap-5, -0x1.910fd6p-6, 0x1.0b06c6p-6, -0x1.e1a5d8p-6, 0x1.01e466p-4, 0x1.48bbe6p-6, 0x1.8143e4p-6, 
    -0x1.eae32ep-5, -0x1.0348f6p-4, -0x1.069f7ap-6, -0x1.115148p-4, -0x1.202c18p-4, 0x1.7e5516p-5, -0x1.bbf782p-8, -0x1.2efebp-6, 
    -0x1.29c5fp-5, -0x1.032fdcp-4, 0x1.113e22p-4, 0x1.d28d26p-5, -0x1.3f6a3ap-4, 0x1.17b9ccp-5, 0x1.861b8p-8, 0x1.3838p-5, 
    0x1.681d44p-5, 0x1.d5047ap-6, 0x1.ceff38p-9, 0x1.07a8ep-4, 0x1.19bd6ap-4, 0x1.ffeedap-5, 0x1.06ff28p-4, -0x1.9879dep-8, 
    -0x1.fa55c6p-7, 0x1.a20f3p-6, 0x1.1b9b4cp-4, -0x1.3a7e14p-4, 0x1.bd004ep-7, 0x1.0f56a2p-4, 0x1.0256d4p-4, 0x1.1a8a58p-4, 
    -0x1.d7b4e8p-7, -0x1.f0fbfep-5, 0x1.f9efecp-5, 0x1.06310ap-5, -0x1.cbc4e2p-5, 0x1.e41aep-7, -0x1.29695ep-4, -0x1.42dadap-6, 
    0x1.d56dbp-7, 0x1.1fa252p-5, 0x1.2e6e2ep-4, -0x1.c745bp-5, 0x1.be3014p-5, 0x1.31723p-5, 0x1.4a47dep-4, 0x1.ddb7a8p-5, 
    -0x1.38105ap-5, 0x1.946d92p-7, -0x1.45b94p-5, 0x1.51fa3ap-5, -0x1.dc89c2p-5, 0x1.40fbe4p-8, -0x1.b68cc6p-7, 0x1.46bf3ap-4, 
    0x1.bd41bap-5, 0x1.d21382p-6, 0x1.2b090cp-4, -0x1.c754bap-6, -0x1.3c464p-5, 0x1.b2357p-7, -0x1.639d4ap-6, 0x1.0c553p-4, 
    0x1.9b4352p-6, 0x1.d8259p-5, 0x1.959afap-6, 0x1.abc50ep-6, 0x1.759fd2p-5, 0x1.0a3a3cp-4, -0x1.20cc7cp-4, 0x1.855daap-6, 
    0x1.23e768p-8, -0x1.8d7b3cp-6, -0x1.2ab88p-7, 0x1.ff5a4ap-6, 0x1.edb482p-5, -0x1.a74ebcp-10, 0x1.0e589cp-4, -0x1.c67a12p-6, 
    0x1.828982p-7, 0x1.34b966p-4, -0x1.3f5588p-4, -0x1.271792p-12, -0x1.b22adep-6, 0x1.809578p-5, 0x1.d1d61p-5, -0x1.c0b456p-7, 
    -0x1.56b2eep-7, 0x1.94b1f2p-6, 0x1.0ad62p-5, 0x1.42cafep-4, 0x1.680cep-6, 0x1.396accp-5, 0x1.5c7186p-6, 0x1.316eap-4, 
    0x1.a8e664p-5, 0x1.9f3fp-6, -0x1.9858ecp-6, -0x1.464512p-7, 0x1.5a248p-5, -0x1.06bd8p-4, 0x1.04fdfep-4, 0x1.eda888p-7, 
    -0x1.271f2ep-4, 0x1.3e3e32p-8, -0x1.95fe1ep-5, -0x1.3d9a1ep-6, -0x1.691202p-5, 0x1.1aea6ap-4, -0x1.29b096p-5, 0x1.b4fd2ep-7, 
    0x1.10d8fap-4, -0x1.76a454p-5, 0x1.9e732ap-7, -0x1.c3be0cp-6, -0x1.a25c06p-5, 0x1.174138p-4, -0x1.e39912p-5, 0x1.8745eep-5, 
    0x1.002484p-6, 0x1.2a7ddp-4, -0x1.411c32p-4, 0x1.44e5p-6, -0x1.4c74cp-5, -0x1.012c5ep-5, -0x1.fc4e7ap-5, -0x1.9f751ep-5, 
    0x1.48986ep-4, 0x1.16661ap-4, -0x1.1f7952p-4, -0x1.1455c2p-8, 0x1.d064c4p-6, 0x1.94f2e6p-5, 0x1.fde39ep-5, 0x1.87b976p-8, 
    0x1.339714p-4, -0x1.ee79b8p-8, -0x1.b93dccp-5, -0x1.0f794p-8, -0x1.328922p-4, 0x1.7b941ep-6, 0x1.bca05cp-7, 0x1.a6c6f4p-5, 
    -0x1.f0b84ep-5, -0x1.ee9acep-5, -0x1.78dd9p-6, -0x1.2071cp-4, 0x1.22d658p-5, -0x1.8ed6bcp-7, 0x1.ae3206p-5, 0x1.291396p-4, 
    0x1.aee9d6p-5, 0x1.3bde84p-4, -0x1.d27c5ep-5, 0x1.0d7468p-4, 0x1.884ffp-7, 0x1.01c252p-4, 0x1.d4967ap-5, -0x1.18a87cp-4, 
    0x1.d35c5ap-6, 0x1.b666cep-7, -0x1.1aad04p-5, 0x1.9f270ep-5, -0x1.a7cf16p-6, 0x1.bb1c86p-7, 0x1.3be78ap-5, -0x1.e894f4p-6, 
    -0x1.fecfbap-5, -0x1.e768e8p-5, -0x1.d4aadep-5, 0x1.0d6e7p-4, -0x1.2c1f86p-4, 0x1.45d8cep-7, 0x1.bb046cp-5, -0x1.5c695p-5, 
    0x1.25ad82p-4, -0x1.2c8376p-4, 0x1.3ef4a2p-4, 0x1.1893bcp-6, 0x1.a78b66p-7, -0x1.9f39c6p-5, -0x1.547fcap-6, -0x1.f8e026p-5, 
    -0x1.0f697ep-5, -0x1.9fe4bp-5, 0x1.01707cp-4, 0x1.4705bp-10, 0x1.230404p-4, -0x1.ff6826p-5, 0x1.1dd9fap-6, -0x1.496f5ep-6, 
    -0x1.191326p-6, 0x1.093bfp-5, -0x1.2bf4eap-5, -0x1.56d872p-5, -0x1.76a1ep-5, -0x1.8d58c8p-6, 0x1.604402p-5, -0x1.9b1e6ap-5, 
    0x1.0f00aep-5, -0x1.17b1a2p-5, 0x1.84752ap-5, -0x1.e1585cp-8, 0x1.ee7524p-10, -0x1.656248p-5, 0x1.a8b9d6p-5, -0x1.5c7f86p-6, 
    0x1.43dbbep-4, 0x1.bb3d54p-5, 0x1.0c60bep-5, -0x1.7f65acp-6, 0x1.2da444p-5, 0x1.0f329p-4, -0x1.e91f1ap-6, -0x1.406eb8p-7, 
    -0x1.211894p-5, -0x1.67884cp-5, -0x1.694a6ep-5, 0x1.b24876p-7, -0x1.56b05p-7, 0x1.2e840cp-9, 0x1.a34c12p-6, -0x1.42ce86p-6, 
    0x1.6cf958p-7, -0x1.164ba8p-7, 0x1.922cf4p-12, 0x1.42c69p-4, -0x1.88d88ap-7, 0x1.21ddbep-6, -0x1.956d8ap-6, 0x1.36a96cp-4, 
    0x1.4d1c26p-5, 0x1.01412ep-4, 0x1.8bea4cp-5, 0x1.de1caep-5, -0x1.fc2c28p-5, -0x1.07868ap-6, -0x1.b71d12p-5, 0x1.f50a8ep-5, 
    -0x1.0f5734p-4, -0x1.90df8p-6, 0x1.324946p-4, -0x1.8ad37cp-5, -0x1.023066p-5, -0x1.32229cp-4, 0x1.8c16ep-6, -0x1.75953p-6, 
    0x1.0082cp-4, 0x1.43c472p-5, -0x1.26a3b6p-7, -0x1.0681cp-4, 0x1.fad8bep-7, -0x1.f6af0ep-5, 0x1.47efdp-5, -0x1.1ec124p-4, 
    -0x1.6a1726p-5, -0x1.4e573cp-4, 0x1.10565cp-7, -0x1.12fbcep-7, -0x1.12180cp-5, -0x1.3be2a4p-6, -0x1.1a6856p-4, -0x1.180728p-4, 
    -0x1.679baap-7, -0x1.3d029cp-4, -0x1.36fa0ap-4, 0x1.67e79ap-7, 0x1.e74d8p-5, 0x1.44b7bcp-4, 0x1.1cb012p-4, 0x1.1a4d1ep-4, 
    0x1.12b7f4p-5, -0x1.a81be2p-5, -0x1.4a41d6p-4, 0x1.40aeacp-5, 0x1.5375ecp-5, 0x1.263108p-4, 0x1.a5a8a6p-5, 0x1.758d8ep-5, 
    0x1.1f5d4ep-4, 0x1.2ff0c8p-4, 0x1.3d05a4p-6, 0x1.1799dcp-4, -0x1.b66342p-5, -0x1.b52cb4p-6, -0x1.6f11f6p-5, -0x1.fdbe0ap-7, 
    -0x1.615316p-5, 0x1.47b3aep-6, -0x1.fcc266p-7, -0x1.4b0b78p-5, 0x1.6a739ep-6, 0x1.3abdb2p-4, 0x1.e951cp-5, -0x1.36594ep-5, 
    0x1.719996p-6, -0x1.de38dap-12, -0x1.fbf6cep-5, -0x1.175d32p-4, 0x1.014c82p-4, -0x1.e7d418p-6, -0x1.41afb4p-5, -0x1.5ebc56p-6, 
    -0x1.3cf57ep-4, -0x1.e6b54ep-7, -0x1.e4c848p-5, -0x1.245d9ap-4, -0x1.630cdap-5, -0x1.3acb7p-6, -0x1.47f472p-4, 0x1.81a58p-5, 
    -0x1.39006ep-5, -0x1.9d2a7p-5, -0x1.4be776p-4, -0x1.dc0fep-6, -0x1.75670ep-6, -0x1.0eda52p-4, 0x1.893618p-5, -0x1.7cd27ep-5, 
    0x1.7a8fdcp-5, 0x1.81af42p-7, -0x1.48c4ccp-6, -0x1.421638p-5, -0x1.17aa52p-5, 0x1.2106d8p-6, -0x1.0b86ccp-6, -0x1.2d7804p-5, 
    0x1.853d16p-5, 0x1.323996p-4, 0x1.72f956p-5, 0x1.28cb7p-4, -0x1.2237e8p-5, -0x1.ede546p-5, -0x1.b7aab6p-6, -0x1.f4c35cp-8, 
    0x1.e92b5ap-5, -0x1.3c1b24p-7, 0x1.15b6f4p-5, -0x1.144c3ep-5, 0x1.0b42p-4, -0x1.220c72p-4, -0x1.765daep-6, 0x1.e29464p-5, 
    -0x1.90431p-9, 0x1.3482bcp-4, -0x1.09ce22p-5, 0x1.55be72p-5, -0x1.71c27ep-6, -0x1.8e8dd8p-5, 0x1.4d94e4p-4, 0x1.ecb0cep-5, 
    0x1.31ab52p-4, 0x1.43e9c8p-4, 0x1.b1332ep-9, 0x1.e02386p-5, 0x1.1a0f54p-4, 0x1.e4354ap-5, 0x1.2046f6p-6, 0x1.3c07c6p-4, 
    -0x1.296998p-4, 0x1.06c82ep-4, 0x1.0dc9b6p-5, 0x1.535d28p-6, -0x1.158fc2p-5, 0x1.3f6f28p-5, 0x1.1a36eep-5, 0x1.6ba96p-5, 
    0x1.adc93p-5, -0x1.91acbap-6, 0x1.1934cp-4, 0x1.67cc4p-7, -0x1.af681cp-6, -0x1.64051cp-6, 0x1.267a02p-5, 0x1.f7cc4p-6, 
    0x1.03cf7cp-9, 0x1.04f162p-4, 0x1.c44634p-5, -0x1.8ec9ccp-5, 0x1.2ed5b4p-9, 0x1.ed29dp-5, -0x1.4571b4p-4, -0x1.990f34p-5, 
    -0x1.ea084p-6, -0x1.38814p-4, 0x1.69bda8p-7, -0x1.ba0dc2p-5, -0x1.00fdf6p-4, -0x1.46db56p-4, 0x1.19fb4ep-5, 0x1.3782e4p-4, 
    -0x1.0f33p-4, 0x1.fabc54p-7, -0x1.f8ec66p-8, -0x1.132314p-6, 0x1.78d4d4p-5, 0x1.c962ccp-6, -0x1.cb19dep-5, -0x1.a85aep-5, 
    0x1.a2e486p-5, -0x1.6214aep-8, 0x1.f92e0ap-7, -0x1.5db442p-5, -0x1.1a3bb2p-4, 0x1.44b8c2p-4, -0x1.38c4b2p-4, -0x1.1b7352p-4, 
    0x1.c9aa04p-5, -0x1.d66e3ap-6, 0x1.d23a98p-5, -0x1.921256p-6, -0x1.c75b58p-5, 0x1.453838p-4, 0x1.ddb6dcp-5, 0x1.6a6992p-6, 
    -0x1.469e3cp-4, -0x1.078ffep-5, 0x1.efdc7cp-6, 0x1.269fd6p-6, -0x1.21a186p-4, 0x1.1be3b8p-4, -0x1.4cca0ep-4, -0x1.231d04p-5, 
    -0x1.4d610cp-7, 0x1.b6af98p-6, 0x1.d1e34ap-10, -0x1.6d3e9ep-5, -0x1.bd2ce2p-5, 0x1.8b118ap-5, -0x1.9a426ep-5, 0x1.31f7eep-5, 
    0x1.7c975cp-6, 0x1.04ca56p-5, 0x1.150accp-5, 0x1.2bbcaep-4, 0x1.33a2fp-7, 0x1.69f218p-5, 0x1.195c54p-4, 0x1.7f5086p-6, 
    -0x1.22905ap-6, -0x1.4d60a2p-6, 0x1.4d5778p-5, 0x1.9bce9cp-7, 0x1.57b1d6p-7, 0x1.8ec658p-5, 0x1.fdd1a2p-7, 0x1.294b8cp-4, 
    0x1.fdc93ep-5, -0x1.d85626p-5, 0x1.1215d2p-4, 0x1.45d924p-4, -0x1.77c30ep-9, 0x1.3beccap-4, 0x1.90bf34p-5, 0x1.07a004p-5, 
    -0x1.e41e06p-6, -0x1.2cc4cep-4, -0x1.7b4a44p-5, -0x1.17c13cp-4, 0x1.ee60dap-6, 0x1.4b1884p-8, 0x1.25ee58p-4, 0x1.2ebeb4p-4, 
    -0x1.03461cp-4, 0x1.06b4c8p-7, -0x1.088946p-5, 0x1.5c12f8p-5, 0x1.5889a4p-5, -0x1.9b6444p-6, 0x1.c063aap-5, -0x1.907fb4p-5, 
    -0x1.8bb344p-6, -0x1.e2857cp-9, -0x1.2564f4p-7, -0x1.65ff02p-8, 0x1.5d128ep-5, 0x1.2c907p-7, 0x1.c1955cp-12, -0x1.db5b3p-6, 
    0x1.165846p-4, -0x1.f605ep-14, 0x1.639388p-5, 0x1.03a9ep-4, -0x1.22dbacp-5, -0x1.44b10ap-4, -0x1.2eba6p-4, -0x1.020b9ep-4, 
    -0x1.40ae7ep-5, -0x1.a8c292p-5, -0x1.05932cp-6, -0x1.619d2ap-5, -0x1.0f3078p-4, -0x1.11f74cp-4, 0x1.1ae354p-8, -0x1.26683p-7, 
    -0x1.fc8638p-12, 0x1.2b4a54p-5, 0x1.bf621ap-5, 0x1.e661a2p-5, -0x1.29f986p-4, 0x1.1e3282p-5, 0x1.30c55p-5, -0x1.f46318p-6, 
    0x1.c82aa2p-5, -0x1.4c08dap-5, -0x1.f69712p-5, 0x1.ef6f9p-5, -0x1.23603p-5, -0x1.31edc8p-7, 0x1.991fe6p-6, -0x1.39fb3cp-6, 
    0x1.278e74p-6, -0x1.67a468p-5, -0x1.184b4ep-4, -0x1.de685ep-7, -0x1.938f86p-6, -0x1.01de68p-9, 0x1.3801e8p-5, -0x1.a14e94p-8, 
    0x1.2ed3b8p-4, 0x1.6e2f82p-5, 0x1.6dab7ap-5, -0x1.37bab4p-4, -0x1.172b1cp-5, -0x1.52ee96p-5, -0x1.0465fcp-5, 0x1.5798e4p-5, 
    -0x1.bbbe12p-6, -0x1.3f5b1cp-4, 0x1.43b98ap-4, -0x1.3e3c7p-5, 0x1.0bb3dep-5, -0x1.78ee24p-7, 0x1.e49c02p-6, 0x1.0ca97ap-4, 
    0x1.49f84ap-8, -0x1.e78fb6p-6, -0x1.b5a822p-5, -0x1.82cccp-5, -0x1.f99654p-5, 0x1.66a4e6p-5, -0x1.db20f8p-5, 0x1.46b25ap-4, 
    0x1.b10a32p-6, 0x1.df36b2p-7, -0x1.a37p-6, 0x1.757f58p-5, 0x1.29f81p-4, -0x1.2392c4p-4, -0x1.467792p-6, 0x1.a24dd2p-8, 
    -0x1.d398cap-5, 0x1.690b4p-5, -0x1.c9d4e8p-7, 0x1.16c126p-10, 0x1.05576p-4, 0x1.7e968cp-5, -0x1.ba5f34p-5, -0x1.427812p-4, 
    -0x1.3265bap-6, -0x1.ea9fb6p-9, -0x1.20c31cp-4, -0x1.f677eap-5, -0x1.e6138ep-8, -0x1.ce73a4p-6, -0x1.23e986p-8, 0x1.46c4d6p-4, 
    -0x1.3ba172p-5, -0x1.e59facp-5, 0x1.673fap-5, -0x1.1e7e0ep-4, -0x1.95d332p-7, 0x1.1de10ap-8, 0x1.a8753ap-5, -0x1.f49dccp-7, 
    -0x1.00d95p-4, 0x1.17fd4cp-6, -0x1.585abap-6, 0x1.2c3e7ap-5, -0x1.39fff2p-4, 0x1.4397a4p-4, -0x1.1310eep-5, 0x1.cf72ccp-5, 
    0x1.3e119ep-5, -0x1.10f3e8p-4, -0x1.850c76p-6, -0x1.870104p-6, -0x1.29cd84p-7, -0x1.12de4ap-6, -0x1.ff8166p-6, 0x1.6eea24p-5, 
    0x1.86dc06p-10, 0x1.15a0c8p-5, -0x1.09fbdcp-5, -0x1.3bcedp-4, -0x1.f2f782p-7, -0x1.33bc28p-4, 0x1.eb159ep-10, -0x1.125162p-4, 
    -0x1.ef92b6p-5, 0x1.a7bdecp-5, 0x1.886746p-5, 0x1.951eap-5, 0x1.4c5b32p-5, 0x1.968306p-6, -0x1.66b9d2p-8, 0x1.51fbe6p-6, 
    0x1.4ce3eap-6, -0x1.9f49fcp-7, -0x1.4b250ap-4, -0x1.f6c41ep-8, -0x1.43dd8ep-4, -0x1.248a68p-4, 0x1.e1a4ap-6, -0x1.1f008ap-4, 
    -0x1.04dbap-7, 0x1.3d8d6cp-7, 0x1.114ce4p-4, -0x1.4a4272p-5, 0x1.a6557cp-5, -0x1.3a9b3p-6, -0x1.8492a8p-5, 0x1.493d3cp-5, 
    -0x1.1912bep-8, -0x1.306b36p-6, 0x1.357618p-5, 0x1.4c0f94p-4, -0x1.a6ba62p-7, -0x1.e9af5cp-5, -0x1.734b3p-6, -0x1.ec7ed6p-7, 
    -0x1.3c0bep-4, -0x1.0cf4dap-4, -0x1.41beep-10, 0x1.106bf4p-5, -0x1.3fc27p-5, 0x1.72230cp-5, -0x1.3bd512p-5, -0x1.35a1a2p-4, 
    -0x1.3ee4ecp-6, -0x1.38fb2cp-4, 0x1.d9999p-5, 0x1.5b0efap-5, 0x1.35f394p-4, -0x1.56a1a4p-5, -0x1.0354aap-4, 0x1.46407ep-4, 
    0x1.746a54p-5, -0x1.6b9fd2p-5, 0x1.b3c166p-6, 0x1.1482a8p-4, -0x1.4e3c02p-5, 0x1.341eb8p-5, -0x1.c9bcdcp-5, -0x1.3dab66p-4, 
    -0x1.1949fap-6, 0x1.11de1ep-4, -0x1.7d5012p-5, -0x1.382af2p-4, -0x1.0019f2p-5, -0x1.6e8462p-5, 0x1.316bd4p-4, -0x1.40dafcp-6, 
    -0x1.a8d488p-6, 0x1.23e02ep-5, 0x1.858192p-5, -0x1.c46726p-6, 0x1.ea5c3cp-6, -0x1.12f036p-5, -0x1.489324p-4, -0x1.0e8df2p-4, 
    -0x1.77399ap-5, -0x1.0f674ap-4, -0x1.a9d608p-5, -0x1.3e2a3p-6, -0x1.0904bap-4, 0x1.4947eep-7, 0x1.a1f66ap-5, 0x1.4bc702p-4, 
    -0x1.a5d74p-5, -0x1.6f2736p-6, 0x1.1ea954p-6, 0x1.050dfp-5, 0x1.d40a8cp-6, 0x1.12a308p-4, 0x1.f92648p-7, 0x1.fda6dp-6, 
    0x1.167d98p-4, -0x1.02a96ep-4, 0x1.37d378p-4, -0x1.c85266p-5, 0x1.a025fcp-5, -0x1.70f244p-5, 0x1.d0374ap-6, -0x1.6824d6p-10, 
    -0x1.05c50ap-5, -0x1.15500cp-4, -0x1.1ff7eep-4, -0x1.712856p-7, 0x1.95ca84p-5, -0x1.aa2acp-5, -0x1.a9a736p-5, 0x1.200318p-4, 
    0x1.1c016ap-5, 0x1.8a6d42p-5, -0x1.81c40ap-6, 0x1.3f719cp-5, -0x1.e1964cp-5, 0x1.9032b6p-5, -0x1.c2de16p-6, 0x1.b1340ap-6, 
    -0x1.e7f8b8p-7, -0x1.ca2ff2p-12, -0x1.e38026p-7, 0x1.37f0f6p-6, -0x1.fd4882p-6, -0x1.b04a7p-5, 0x1.266d8p-5, -0x1.244458p-5, 
    -0x1.9d00bcp-5, -0x1.2d0032p-5, -0x1.2e5b44p-4, -0x1.03610ap-4, 0x1.013eeap-4, -0x1.b73704p-6, 0x1.96b022p-7, 0x1.ece6dcp-6, 
    -0x1.09bafcp-7, -0x1.e60906p-6, 0x1.170cp-4, -0x1.8f953p-5, 0x1.bb07d4p-6, -0x1.4362ep-8, -0x1.280a46p-4, 0x1.15fe4p-5, 
    0x1.754426p-5, -0x1.adf8e4p-8, -0x1.d34192p-6, 0x1.2460b2p-4, 0x1.de6e4ap-6, 0x1.13208p-4, -0x1.4e25fcp-7, 0x1.c1c36ap-9, 
    -0x1.e8e886p-5, -0x1.d37ceep-5, -0x1.d084dap-5, 0x1.3e8e3ep-4, -0x1.3b8132p-6, -0x1.2a330cp-4, -0x1.c896ccp-5, 0x1.23e342p-4, 
    0x1.3cf1fcp-4, -0x1.6ff7b4p-7, -0x1.7c98b4p-5, 0x1.868526p-7, 0x1.7f9dcep-5, 0x1.391922p-4, -0x1.e8d14p-5, -0x1.a317p-8, 
    -0x1.f5ef42p-6, 0x1.21574cp-4, -0x1.ff797ap-7, -0x1.40017ap-6, -0x1.0c627ep-5, 0x1.e41062p-6, 0x1.572e68p-5, 0x1.c9e46ap-7, 
    0x1.a50378p-6, -0x1.78a76ep-5, -0x1.b16b66p-5, -0x1.83783cp-5, -0x1.0fe4dp-4, 0x1.9492f6p-15, -0x1.393fccp-4, -0x1.0c5cdcp-4, 
    -0x1.17af96p-5, 0x1.82427p-5, -0x1.20b9dep-5, 0x1.0d90aep-4, 0x1.7c2784p-5, -0x1.de7074p-5, 0x1.0039cap-6, -0x1.b304cp-5, 
    -0x1.a94354p-6, 0x1.59ff4p-5, 0x1.08ff12p-5, 0x1.30abbcp-4, -0x1.555688p-6, -0x1.4774ap-5, 0x1.d50beep-5, -0x1.670a2p-6, 
    0x1.94614cp-5, 0x1.55d5a8p-6, 0x1.1c177ap-7, -0x1.47b22p-6, -0x1.aff2f4p-6, 0x1.92f93ep-7, -0x1.7babf6p-5, 0x1.3a079ap-5, 
    0x1.27f0b4p-5, -0x1.d0d548p-7, -0x1.80420ap-6, 0x1.03d4bcp-4, 0x1.37c33cp-6, 0x1.b863bap-6, 0x1.16f21p-6, 0x1.9f7662p-5, 
    0x1.7a24dcp-5, 0x1.dbc1fcp-5, -0x1.168c12p-4, -0x1.ee5bacp-6, -0x1.442b4ep-4, 0x1.3e74fp-6, -0x1.a27936p-6, -0x1.3fe11ep-5, 
    0x1.e9e878p-5, -0x1.0a25fep-5, 0x1.2af46ep-4, -0x1.9fd48ap-9, 0x1.213452p-5, -0x1.9c692ep-5, -0x1.0e09d4p-5, -0x1.16fde6p-11, 
    0x1.3cc47ap-4, -0x1.5f3b82p-5, 0x1.c891b2p-6, -0x1.1e112cp-6, 0x1.a92c14p-5, 0x1.971758p-5, 0x1.7981d8p-10, -0x1.417c32p-4, 
    0x1.9c17dap-6, 0x1.03813ap-6, -0x1.086268p-4, -0x1.315b6p-4, 0x1.ba58d6p-5, 0x1.a09d8p-5, -0x1.b86d9cp-5, -0x1.0c9a7ap-4, 
    -0x1.00267ap-10, -0x1.89be2ep-6, 0x1.754f76p-5, 0x1.bbf35ep-5, 0x1.ccdc54p-6, -0x1.16beaep-5, -0x1.270e2ep-7, -0x1.5c3bf6p-5, 
    -0x1.330584p-7, 0x1.4272aap-6, 0x1.1595a8p-5, -0x1.b0082ep-8, -0x1.acffbcp-5, 0x1.3da558p-7, -0x1.85a4c8p-6, 0x1.864586p-5, 
    -0x1.1770b6p-4, 0x1.211e9cp-4, -0x1.5cbcc2p-5, -0x1.1f4c38p-8, -0x1.32b09ep-4, -0x1.ac5c8ap-5, -0x1.431b04p-4, 0x1.2aa4fcp-5, 
    -0x1.48cec2p-7, -0x1.20da18p-7, -0x1.1b92ccp-6, 0x1.b1303ep-7, -0x1.28ed38p-7, 0x1.275228p-6, 0x1.fe525p-6, 0x1.130deep-6, 
    0x1.0300f4p-6, -0x1.6fa24cp-7, 0x1.3d0f46p-5, -0x1.6f2be8p-8, -0x1.b63bfcp-6, -0x1.5b2dd8p-5, 0x1.06ac4cp-6, 0x1.ce5188p-5, 
    -0x1.c1af7ep-9, 0x1.64cbd8p-9, 0x1.181beap-4, -0x1.13bd9cp-4, 0x1.8cf4a4p-6, -0x1.97311p-6, 0x1.c7418p-5, 0x1.000cfep-4, 
    -0x1.1e5da8p-4, 0x1.85af26p-7, -0x1.83c66p-5, -0x1.18bccep-4, -0x1.731d42p-5, 0x1.21ad08p-4, -0x1.07888p-7, 0x1.4770cp-4, 
    0x1.d01556p-5, 0x1.2d87ep-6, 0x1.43735ep-6, 0x1.091434p-4, -0x1.c99a24p-5, 0x1.42f668p-6, 0x1.bb8cb6p-7, 0x1.c0f278p-5, 
    0x1.dfac3p-6, -0x1.57417cp-8, 0x1.3af4a8p-5, -0x1.16373ap-4, -0x1.c03644p-6, 0x1.10b87p-5, 0x1.076ac6p-4, -0x1.a40a3cp-6, 
    0x1.3f0eep-5, 0x1.5f0d3p-5, -0x1.f57d46p-6, -0x1.e88536p-5, 0x1.3c8cc4p-4, 0x1.0197dap-4, 0x1.368db4p-6, -0x1.74f6fep-8, 
    -0x1.3c1924p-5, -0x1.6f46bp-6, 0x1.d2223ep-7, 0x1.7ad196p-8, -0x1.84664ep-6, -0x1.bdc6ap-8, -0x1.f6e544p-11, -0x1.f05cd6p-6, 
    0x1.eed9c6p-5, 0x1.0d9cf6p-4, 0x1.4cccc4p-7, 0x1.02c972p-4, -0x1.800c9ap-5, 0x1.52915cp-5, 0x1.d94804p-5, 0x1.0eeedp-6, 
    0x1.15bb0ep-5, -0x1.1594c2p-6, 0x1.1de796p-4, 0x1.0562dcp-4, -0x1.a7e6dp-6, -0x1.c43018p-5, -0x1.3e0676p-4, 0x1.432cf2p-4, 
    0x1.3a1edap-5, 0x1.7bc4fcp-5, 0x1.927638p-5, 0x1.c88a48p-5, -0x1.bb28a2p-5, 0x1.1182b6p-5, 0x1.99010ep-5, -0x1.133ab2p-4, 
    -0x1.3aaa02p-7, -0x1.75981p-5, 0x1.43ca2ap-6, 0x1.2c90ep-4, -0x1.4ba8ap-6, 0x1.0f34fep-9, -0x1.28a6cp-4, 0x1.2af41ap-7, 
    -0x1.d68932p-5, -0x1.378f78p-7, 0x1.a5bc2p-6, 0x1.7f939ep-5, -0x1.4329f8p-5, 0x1.57b7c8p-5, 0x1.274066p-5, -0x1.527bc8p-5, 
    -0x1.9bacd4p-5, -0x1.75c66cp-6, 0x1.008b7p-6, -0x1.113976p-4, -0x1.3f7afep-8, 0x1.998778p-5, -0x1.433c92p-4, -0x1.355c8ep-4, 
    -0x1.9a6126p-7, 0x1.c0b2f2p-7, 0x1.04e546p-4, -0x1.360e64p-5, -0x1.a9d8ap-5, -0x1.323ba2p-6, -0x1.69f28cp-5, -0x1.854a1p-6, 
    0x1.ac2eacp-5, 0x1.64ce6ap-5, 0x1.40441ep-5, -0x1.204454p-5, -0x1.efdd2ep-5, -0x1.403d6ap-4, 0x1.824264p-6, -0x1.390134p-4, 
    -0x1.24e8dap-4, -0x1.aebbf8p-5, 0x1.c757bcp-5, -0x1.1009bp-7, 0x1.57320ep-7, -0x1.37b17p-8, 0x1.2f1134p-4, -0x1.39bcfap-6, 
    -0x1.60841ap-8, 0x1.450ac4p-6, -0x1.0edee4p-5, 0x1.2a2374p-4, 0x1.06ebfep-4, -0x1.1fe9fap-4, 0x1.ca785ep-7, 0x1.6c8d28p-7, 
    0x1.c4d4b8p-8, -0x1.afeaf4p-6, 0x1.184038p-4, 0x1.9702c4p-6, 0x1.8ab08ap-5, 0x1.30656p-6, 0x1.ebf642p-5, -0x1.6ebb7ap-5, 
    0x1.9ed434p-5, -0x1.30a91ap-6, 0x1.0f021ap-5, 0x1.8915c8p-7, -0x1.208cf2p-4, -0x1.6fac6cp-11, -0x1.8de228p-6, -0x1.c19734p-5, 
    0x1.5c1ffep-6, 0x1.126464p-4, 0x1.08e1f4p-4, -0x1.af9a34p-5, 0x1.5195c2p-5, -0x1.378b92p-5, 0x1.832beap-6, -0x1.23522ap-5, 
    -0x1.464456p-8, -0x1.974b06p-7, 0x1.016a28p-5, 0x1.bdec8ep-6, 0x1.92cba4p-5, -0x1.3436d2p-4, -0x1.64c106p-6, -0x1.127e2cp-5, 
    0x1.16f618p-4, 0x1.15b266p-6, -0x1.1a4dc2p-4, -0x1.fc0dd8p-5, 0x1.a63494p-5, -0x1.852824p-6, 0x1.6415d8p-6, 0x1.6de3c2p-5, 
    -0x1.a53152p-7, 0x1.2aa674p-6, -0x1.3aad38p-4, -0x1.93cbe6p-5, -0x1.294298p-4, 0x1.05929p-4, -0x1.47c9a4p-6, 0x1.137ad2p-4, 
    -0x1.64495ep-7, -0x1.8b19c8p-5, 0x1.0b5f18p-4, 0x1.1c3d6ep-4, -0x1.f631ccp-7, 0x1.c87142p-5, 0x1.208a7ep-8, 0x1.4c9896p-4, 
    -0x1.588d12p-6, -0x1.24f194p-10, 0x1.de922cp-6, 0x1.8ae46cp-5, 0x1.01ca8p-5, -0x1.12da1cp-5, 0x1.e85d24p-8, 0x1.14edf8p-5, 
    0x1.175f76p-4, 0x1.4e02d8p-4, -0x1.054672p-5, 0x1.0eb9d8p-5, 0x1.886daap-6, 0x1.728844p-5, 0x1.adde36p-5, 0x1.395538p-5, 
    0x1.44310ap-4, -0x1.74dc36p-7, 0x1.2dcd16p-4, -0x1.96a656p-9, 0x1.fd989p-11, -0x1.f4ee1ep-5, -0x1.63479ap-7, -0x1.131e52p-5, 
    0x1.01246ep-5, -0x1.7633f4p-8, -0x1.03c76p-4, 0x1.044b64p-6, -0x1.05ce78p-5, 0x1.627654p-5, 0x1.a03d0ep-6, -0x1.8ce816p-5, 
    -0x1.225534p-4, -0x1.440d68p-6, -0x1.49675cp-6, -0x1.ab54d4p-10, -0x1.1c6564p-4, 0x1.e4c4cp-5, -0x1.eef47ap-5, -0x1.2c459p-11, 
    0x1.24bcp-4, 0x1.28fe4ep-4, 0x1.1402ccp-7, -0x1.1a9678p-4, 0x1.bf40dap-5, -0x1.eaedc6p-6, 0x1.8ab2d8p-7, 0x1.e17798p-5, 
    -0x1.3a9d2ap-5, 0x1.b8b742p-6, -0x1.9334dap-8, 0x1.156424p-5, 0x1.366baep-4, -0x1.59504ap-8, 0x1.4b58ep-4, -0x1.cef962p-6, 
    0x1.fafd14p-7, -0x1.34f7a8p-9, 0x1.148cb8p-4, -0x1.a8a2dap-6, -0x1.a8ddf6p-5, 0x1.ebb48cp-5, -0x1.32968ep-7, 0x1.2a8e4ap-7, 
    -0x1.029d18p-4, -0x1.34090ap-4, 0x1.34831p-6, -0x1.f22cap-5, -0x1.1c8f06p-4, -0x1.cf0998p-5, 0x1.ab9f3cp-5, 0x1.3edd9cp-4, 
    -0x1.c06e9cp-7, 0x1.0e21f4p-6, -0x1.54e1bap-6, 0x1.63ee92p-8, -0x1.22111ap-6, 0x1.2c02b2p-4, -0x1.421046p-4, -0x1.0e1428p-6, 
    0x1.48183p-4, 0x1.591ae4p-6, -0x1.2d9798p-9, -0x1.4a53d6p-4, 0x1.56791ep-6, -0x1.1cd4e2p-5, -0x1.0155cep-7, -0x1.b67b52p-5, 
    0x1.362ec2p-4, 0x1.18517ap-6, -0x1.d53c92p-6, 0x1.84c04ep-5, 0x1.1adf7ep-7, 0x1.0b82ccp-4, -0x1.95f94ep-5, -0x1.e718d6p-5, 
    0x1.ef0cbp-8, 0x1.b720e8p-5, 0x1.0df9fap-4, -0x1.4c528p-5, -0x1.c3e914p-13, -0x1.f205c8p-5, -0x1.05e526p-7, 0x1.6a9ddep-7, 
    0x1.23762cp-5, 0x1.7ccfd2p-5, -0x1.15023p-4, -0x1.28dce4p-7, -0x1.749322p-7, -0x1.c498dep-7, -0x1.3aefe6p-7, 0x1.1f5a68p-5, 
    0x1.bd01fep-5, -0x1.65d66ep-7, -0x1.7720f2p-5, -0x1.c11ad8p-6, -0x1.c95164p-5, 0x1.667d2ep-5, -0x1.04468ep-4, -0x1.b93368p-5, 
    0x1.8a524p-7, -0x1.0a82b2p-4, 0x1.bd68a6p-6, 0x1.c7a2fep-7, -0x1.84f894p-7, 0x1.59cf52p-5, -0x1.8b9bbp-5, -0x1.11bd18p-4, 
    0x1.61725cp-6, 0x1.1a50ep-5, 0x1.b9ed52p-6, -0x1.1b65f8p-5, -0x1.6b1e28p-5, 0x1.e6dab2p-7, -0x1.386a22p-6, -0x1.9cb508p-6, 
    0x1.2bbfcp-4, 0x1.a79218p-5, 0x1.09a59p-4, -0x1.4a5bb6p-4, -0x1.2679ccp-4, 0x1.1be5e2p-4, -0x1.4343dep-4, -0x1.a444dcp-5, 
    0x1.2627b4p-5, 0x1.064b36p-7, -0x1.138492p-6, 0x1.31f4a4p-7, 0x1.04bf8ep-5, 0x1.7294dep-6, -0x1.7d4ec8p-7, -0x1.138324p-4, 
    0x1.1d005p-4, -0x1.478b0ep-5, 0x1.186dcp-4, 0x1.c48356p-5, 0x1.cf3726p-5, 0x1.4a2676p-6, -0x1.2e2666p-5, -0x1.778b0cp-6, 
    -0x1.18da2ap-4, 0x1.731062p-5, -0x1.6151c8p-6, -0x1.2bb3d6p-5, 0x1.0d5338p-4, -0x1.5ff922p-5, -0x1.1551fep-4, 0x1.2e3428p-4, 
    -0x1.474f5cp-4, -0x1.b4c88ep-6, 0x1.726c7cp-5, 0x1.f0d506p-5, -0x1.c8647ap-5, -0x1.dd1a3cp-5, 0x1.d763eap-6, -0x1.0e840ep-7, 
    0x1.26a692p-5, -0x1.74bd6ep-6, -0x1.7db116p-10, 0x1.cc20f2p-6, -0x1.66963ap-8, 0x1.b02bf2p-13, 0x1.26144p-9, -0x1.143376p-6, 
    0x1.0a1d7p-5, -0x1.aa0b16p-5, 0x1.1af3fcp-7, 0x1.43e164p-4, 0x1.f8fe32p-9, 0x1.0d9dap-5, -0x1.51ffe6p-7, -0x1.6f550ep-7, 
    -0x1.2cb0e4p-6, -0x1.eb5d04p-6, -0x1.3018e4p-4, 0x1.2ebb3p-5, -0x1.9b7cccp-9, 0x1.5a45b6p-5, -0x1.dd0d6cp-5, -0x1.56eec6p-6, 
    -0x1.3f2ba8p-5, 0x1.9e3e4p-6, -0x1.a87fc8p-10, -0x1.19b892p-5, 0x1.dcd7ccp-7, 0x1.76d702p-7, 0x1.0ce5c4p-4, 0x1.340a62p-8, 
    0x1.eaa62p-6, 0x1.4edc6ep-5, 0x1.7e0fecp-6, 0x1.faaf92p-5, -0x1.37c55cp-7, -0x1.7323b6p-7, 0x1.e062e2p-5, -0x1.19bb1p-6, 
    -0x1.3f51dep-5, -0x1.1797d4p-5, 0x1.737b7cp-5, -0x1.c2aaeep-6, 0x1.307beap-6, 0x1.1618dp-5, -0x1.380fb8p-5, -0x1.01b28ap-5, 
    -0x1.586bacp-8, 0x1.2448dp-4, -0x1.103574p-4, -0x1.210b76p-4, 0x1.0f21f2p-5, -0x1.061ap-5, -0x1.074554p-4, -0x1.8daab8p-6, 
    0x1.491eb6p-4, -0x1.6b267cp-5, -0x1.4257f6p-6, 0x1.4004b2p-5, -0x1.a9c61cp-5, -0x1.10a73cp-5, -0x1.0d7dbcp-4, 0x1.55a06cp-8, 
    -0x1.b85462p-8, 0x1.47f768p-6, 0x1.f97dfp-5, 0x1.e24b84p-8, -0x1.61fd54p-8, 0x1.6323eap-8, 0x1.0c8c1ep-4, -0x1.f1b5e4p-7, 
    0x1.480d3ap-5, -0x1.c60f26p-7, -0x1.b65daap-6, -0x1.3450dep-4, 0x1.590566p-5, -0x1.0d7p-6, 0x1.523896p-5, -0x1.c6b288p-6, 
    -0x1.c5cf78p-7, -0x1.37e776p-4, 0x1.00919ap-11, 0x1.5e002cp-6, -0x1.241f3cp-5, -0x1.2e7616p-7, -0x1.198778p-4, -0x1.48deeap-4, 
    0x1.b4e996p-9, -0x1.b0b062p-8, -0x1.d377bep-5, 0x1.8b8056p-5, 0x1.3311cep-6, 0x1.4987a2p-5, -0x1.fbb5eep-7, -0x1.b93268p-5, 
    0x1.dfc4eep-7, -0x1.dcfdaap-5, -0x1.8d8f92p-7, 0x1.ee77f6p-5, -0x1.02286cp-5, 0x1.9cadbep-5, 0x1.edcabep-7, 0x1.63c68cp-5, 
    -0x1.0e2ca2p-5, -0x1.40640ep-4, 0x1.6401c2p-5, 0x1.386328p-4, -0x1.970c9p-5, -0x1.671598p-5, 0x1.014c8ap-6, 0x1.0f171ep-4, 
    -0x1.071c8p-4, -0x1.774552p-5, 0x1.20505ap-8, -0x1.58b858p-5, -0x1.a59a66p-5, 0x1.c53d16p-5, -0x1.0d79p-4, -0x1.7b2466p-5, 
    -0x1.54b7bep-5, 0x1.3ea79ap-4, -0x1.0719c6p-4, 0x1.002184p-4, -0x1.0b9dcp-4, 0x1.dca6e4p-5, 0x1.34f73p-5, -0x1.38ab66p-4, 
    0x1.ff7818p-7, -0x1.0e71cp-5, 0x1.ce7dbep-5, -0x1.24741ep-4, 0x1.2440a6p-4, -0x1.dc8d6p-6, -0x1.a9d632p-5, 0x1.d30b26p-5, 
    0x1.3c58b4p-7, -0x1.260b68p-4, -0x1.e6d98ep-6, -0x1.40d5d2p-5, 0x1.3f735cp-4, 0x1.095f94p-4, -0x1.06168cp-7, -0x1.099d44p-6, 
    -0x1.16a16p-4, -0x1.0c7746p-5, 0x1.25a26ap-5, 0x1.ff3d9cp-5, -0x1.01d958p-6, 0x1.e851acp-5, 0x1.48b44p-4, 0x1.067b1cp-4, 
    0x1.78416ap-5, 0x1.0b2e74p-5, -0x1.0d487ep-4, 0x1.04439ep-4, -0x1.c8007p-5, -0x1.7d0b38p-5, 0x1.36f22cp-5, -0x1.e7dd68p-5, 
    -0x1.13bf18p-4, -0x1.ae169cp-8, 0x1.98cff2p-5, -0x1.d66c1cp-5, 0x1.fb6ff6p-6, -0x1.12e93cp-6, 0x1.40ca98p-5, 0x1.07c68cp-4, 
    0x1.2166c8p-8, 0x1.6cacp-5, 0x1.1fd1f6p-6, -0x1.09b55cp-4, 0x1.6b0d6cp-5, -0x1.46ff88p-4, -0x1.15d9e8p-4, -0x1.f49288p-7, 
    0x1.0f876cp-4, 0x1.3cc4a6p-5, -0x1.962ea4p-6, 0x1.02a0fep-5, -0x1.04659p-8, -0x1.70da1ep-7, 0x1.3b1cc4p-5, -0x1.d59c6ep-5, 
    -0x1.053e42p-7, 0x1.bedbcp-5, -0x1.0fba32p-4, 0x1.21d568p-4, 0x1.2e0894p-5, -0x1.68ca42p-5, 0x1.3f70d2p-4, -0x1.e45baap-6, 
    -0x1.a60728p-5, 0x1.f8bf54p-7, -0x1.1b9824p-5, 0x1.9e1706p-6, 0x1.28a8c8p-4, 0x1.8d28bp-6, 0x1.4f4cd6p-5, 0x1.1560bap-4, 
    -0x1.8588fp-5, 0x1.cfa3d4p-10, 0x1.02bd98p-5, 0x1.eace36p-5, -0x1.78fb2ap-5, 0x1.7a2b4ap-5, 0x1.4a404ep-8, -0x1.a7644ap-9, 
    -0x1.4feabap-7, -0x1.d1e226p-7, -0x1.0f6cb2p-4, -0x1.f261dcp-5, -0x1.1c7704p-4, -0x1.bd161p-5, 0x1.156c7cp-5, 0x1.46451ap-4, 
    0x1.d6069ep-6, 0x1.1e3014p-6, 0x1.f137a8p-5, 0x1.d44d62p-7, -0x1.518788p-5, 0x1.0687a4p-4, 0x1.5b1948p-5, -0x1.7fca04p-10, 
    0x1.e0c9a4p-6, -0x1.8c403cp-10, 0x1.d5bdcep-5, -0x1.e4c314p-6, 0x1.3914d6p-5, -0x1.3b5d7p-4, 0x1.3d182cp-6, -0x1.4e71e6p-5, 
    -0x1.86c01p-5, 0x1.09fe3p-7, 0x1.52aa4ep-6, 0x1.23d136p-5, -0x1.ac20cp-6, -0x1.955098p-5, -0x1.0c694ap-5, 0x1.c9b4fap-8, 
    -0x1.c21a74p-6, -0x1.61adf6p-6, 0x1.bc97ep-6, 0x1.14fa36p-4, -0x1.18833ep-4, 0x1.350ecp-5, 0x1.eeea1p-9, -0x1.23c7f6p-4, 
    0x1.b1f414p-5, 0x1.264614p-5, 0x1.a1b9f2p-7, -0x1.c95ddcp-5, -0x1.bd6648p-6, -0x1.03295ap-5, -0x1.b93adp-5, -0x1.0430dp-4, 
    0x1.3c6e8cp-6, 0x1.23acdcp-6, 0x1.3b095ep-4, 0x1.7ed146p-6, 0x1.d13d9p-5, 0x1.5b51d4p-6, 0x1.3b2578p-4, 0x1.3dc8d2p-5, 
    -0x1.d1a2eap-5, -0x1.35620ap-4, -0x1.f6023ep-5, -0x1.83e6f8p-10, -0x1.1444fp-6, -0x1.73e996p-6, 0x1.23170cp-4, -0x1.300754p-4, 
    0x1.251b82p-6, -0x1.38403ep-5, 0x1.a69e9ap-5, -0x1.d8bff2p-5, -0x1.42951ep-7, -0x1.b2d47ep-6, 0x1.2fa92cp-8, 0x1.77a136p-6, 
    0x1.f10b28p-9, 0x1.203482p-6, 0x1.1098d2p-6, 0x1.9879dep-7, 0x1.d5b284p-8, -0x1.26480ap-5, 0x1.3b62fep-4, -0x1.0689dcp-5, 
    0x1.211d8ap-5, -0x1.590e38p-5, 0x1.927212p-6, 0x1.73a4c8p-5, -0x1.510858p-8, 0x1.e1a108p-6, 0x1.63a6a8p-5, 0x1.90a3bcp-5, 
    0x1.478064p-4, 0x1.8264dap-6, -0x1.3db584p-8, 0x1.bcc9ecp-7, -0x1.e9b05cp-5, -0x1.62936p-5, -0x1.038178p-4, -0x1.c5f788p-5, 
    0x1.46260cp-6, 0x1.81e816p-6, 0x1.5187c6p-5, -0x1.d56ae8p-7, -0x1.145edap-4, -0x1.83afd2p-5, -0x1.a431b6p-6, -0x1.c7520ap-6, 
    -0x1.457fe8p-5, 0x1.63767cp-5, -0x1.36cd64p-4, -0x1.71d666p-5, 0x1.290d7ap-7, -0x1.b2aa3ep-6, 0x1.cad714p-5, 0x1.b043bap-5, 
    0x1.ecce5cp-8, -0x1.042232p-5, 0x1.299efcp-4, 0x1.0b873ep-6, -0x1.2ecd96p-4, -0x1.ef5dfcp-5, -0x1.e53e9cp-7, -0x1.73b14p-5, 
    0x1.029a32p-9, 0x1.5b7e4ap-5, 0x1.c5d614p-7, 0x1.2ffe94p-4, -0x1.e09fcp-7, 0x1.1b0e52p-5, -0x1.11fc1ap-5, -0x1.5033f8p-7, 
    0x1.8f2a2p-5, 0x1.9c25p-7, 0x1.9a0bfep-7, -0x1.f34d7cp-7, 0x1.efd908p-5, -0x1.27177ep-7, -0x1.b1027p-6, 0x1.4d79b8p-5, 
    -0x1.12f008p-4, 0x1.1b62e8p-5, 0x1.127ce4p-4, -0x1.ba4acp-5, 0x1.393722p-5, -0x1.334deap-5, -0x1.89e7d2p-5, 0x1.37d9dap-6, 
    -0x1.26a9b2p-5, -0x1.6d9664p-6, -0x1.1f0e4p-7, -0x1.1be0acp-5, 0x1.f1df48p-7, -0x1.0c90fap-5, -0x1.58f2cep-7, -0x1.d1b2ep-5, 
    -0x1.43eab8p-4, -0x1.5130acp-6, -0x1.4d42a6p-5, 0x1.4a618cp-4, -0x1.2c4d04p-5, -0x1.47149ap-5, -0x1.12409ap-5, -0x1.bb717cp-6, 
    0x1.2300e6p-4, 0x1.3de554p-4, -0x1.df9fd8p-5, 0x1.45dd6ap-4, -0x1.3b0698p-6, 0x1.ab4332p-5, 0x1.ede77cp-7, 0x1.11008ep-6, 
    0x1.f21ae4p-8, -0x1.b2f3bap-6, -0x1.747ac8p-5, 0x1.a63b02p-5, 0x1.bdd95ep-6, 0x1.ab2b26p-5, 0x1.be2682p-5, -0x1.fab906p-5, 
    0x1.98e912p-9, -0x1.f8e63p-7, -0x1.7b2842p-6, 0x1.4ce2a6p-4, -0x1.e3fecp-5, 0x1.f29824p-8, -0x1.1cc0d2p-7, -0x1.fd247ap-5, 
    0x1.b6fc82p-6, 0x1.612a96p-7, 0x1.ced4a4p-6, 0x1.264f7ap-4, -0x1.25c77cp-4, 0x1.39969ap-9, -0x1.3552f2p-5, 0x1.b1afe6p-6, 
    0x1.a48478p-5, -0x1.76ea7cp-6, 0x1.104aap-5, 0x1.2f1344p-4, -0x1.4a3d58p-4, -0x1.48a1eap-5, 0x1.407e18p-5, -0x1.6a953cp-5, 
    0x1.70c812p-5, -0x1.45c17ep-6, -0x1.f72a28p-5, 0x1.21dd7ap-4, 0x1.903dfap-5, 0x1.11d5a4p-5, -0x1.c1fe34p-9, 0x1.3b236ap-7, 
    0x1.1fbae4p-5, -0x1.856c46p-9, -0x1.ec21cp-7, 0x1.43da6ap-4, 0x1.66b2bep-5, -0x1.83058ep-5, -0x1.206ca6p-6, 0x1.11c812p-7, 
    0x1.0412ap-5, 0x1.876a14p-5, -0x1.eed634p-5, -0x1.f0f466p-5, -0x1.2085a6p-4, 0x1.0e9032p-4, 0x1.e5e8a6p-6, 0x1.6fb392p-6, 
    -0x1.09ccdep-10, 0x1.f59118p-5, 0x1.9ae586p-5, -0x1.b6da52p-5, 0x1.eeedb8p-5, -0x1.55ff0ep-6, -0x1.15fc5ep-4, -0x1.d4000ap-5, 
    0x1.dfb3ap-6, 0x1.db9dep-5, -0x1.452abap-4, 0x1.12b582p-5, -0x1.d492fcp-6, 0x1.5aeacap-6, -0x1.7046c2p-5, 0x1.62bd5ep-5, 
    0x1.2cf6f2p-4, 0x1.194fd2p-7, -0x1.128692p-4, -0x1.4bf78ap-6, -0x1.ae69c4p-5, -0x1.4169f4p-11, -0x1.51cdeep-7, -0x1.0c075p-6, 
    -0x1.5c04aep-5, 0x1.e919c6p-5, 0x1.56cb96p-8, 0x1.a5f856p-5, 0x1.4dcdf4p-4, 0x1.480a8p-4, -0x1.413758p-4, 0x1.20d59cp-8, 
    0x1.65f812p-6, 0x1.9e87e6p-6, -0x1.b8c1f4p-8, 0x1.383784p-4, 0x1.433fdap-5, -0x1.1302cp-7, 0x1.af8976p-5, 0x1.487bc8p-4, 
    0x1.ba8706p-5, -0x1.4d3572p-4, 0x1.055968p-6, 0x1.48c99ep-6, -0x1.2faacap-5, -0x1.0e2bbcp-4, 0x1.02d5f8p-5, -0x1.18a0ap-4, 
    0x1.cd65d4p-6, 0x1.0be886p-4, 0x1.405c3ap-6, 0x1.f2cb26p-5, -0x1.0597d2p-4, -0x1.9bd91ap-5, -0x1.7f1f2ap-6, 0x1.50fc1cp-5, 
    0x1.0acd2ap-6, 0x1.007f14p-4, -0x1.24b592p-5, 0x1.8ea962p-6, -0x1.37bd5cp-4, 0x1.3944dcp-4, 0x1.31f672p-4, -0x1.05f6f8p-5, 
    0x1.bbe692p-5, 0x1.42abe2p-5, -0x1.bc6b98p-5, -0x1.013066p-4, 0x1.ff387cp-7, -0x1.43a376p-7, -0x1.375e52p-5, 0x1.faeeeap-6, 
    0x1.1dcd04p-4, -0x1.52e4fep-5, 0x1.144db6p-4, 0x1.70b2dep-5, 0x1.c819bap-5, 0x1.912344p-8, -0x1.2a6dbap-5, -0x1.90eca6p-7, 
    -0x1.47b5b8p-7, 0x1.9e88dcp-5, -0x1.8ff59ep-6, 0x1.3c90bep-5, 0x1.0343bep-4, -0x1.c0270ap-5, -0x1.3938aep-4, 0x1.2eddf2p-7
};
#ifdef __cplusplus
}  // extern "C"
#endif

#ifdef __cplusplus
extern "C" {
#endif
static const float __attribute__((section(".rodata.tvm"), aligned(16))) fused_nn_contrib_dense_pack_constant[160] = {
    -0x1.8b851ap-5, -0x1.552434p-6, 0x1.5ec3e6p-5, -0x1.8b4464p-5, -0x1.99dep-7, -0x1.dec9e6p-6, -0x1.a820fap-6, -0x1.6cac6p-5, 
    0x1.718d8ep-5, -0x1.aa4a74p-6, -0x1.ca6966p-8, 0x1.8aa7e6p-5, 0x1.3b7fp-9, -0x1.e79f26p-6, 0x1.447114p-5, -0x1.cae1cep-9, 
    0x1.f56066p-9, -0x1.804d66p-6, -0x1.5db5dap-7, 0x1.7a392p-6, -0x1.81b066p-6, 0x1.4f866ep-6, 0x1.8a1f06p-5, 0x1.d7872p-6, 
    0x1.cf2f54p-6, 0x1.045446p-6, 0x1.09958p-8, -0x1.094beap-5, -0x1.9277eep-5, -0x1.181deep-5, -0x1.80ef86p-6, -0x1.194f3ep-5, 
    -0x1.6b398ep-7, 0x1.1a8d4p-6, 0x1.66ef4ep-5, 0x1.87fafp-5, -0x1.d6df9ap-10, 0x1.0072dap-6, -0x1.11f326p-7, -0x1.53c3aep-6, 
    -0x1.386b5ep-5, -0x1.0d56dep-5, 0x1.1f98b4p-8, 0x1.552d7ap-6, -0x1.94155ap-7, -0x1.2ff8ep-6, 0x1.00201ap-6, 0x1.8e9cp-8, 
    -0x1.84dc46p-5, 0x1.df2666p-15, -0x1.94c1a6p-5, 0x1.0768f4p-6, -0x1.6f4034p-5, -0x1.0664c6p-6, 0x1.72f334p-8, -0x1.7450a6p-6, 
    -0x1.59ba64p-5, 0x1.229f9p-5, 0x1.0f2c0ep-6, 0x1.ee486ep-6, 0x1.e77e0ep-6, -0x1.8225a6p-5, 0x1.a22334p-10, 0x1.102e54p-5, 
    -0x1.ed85a6p-7, 0x1.6a35p-6, -0x1.43a394p-5, 0x1.4ebe66p-12, 0x1.2dc97ap-5, -0x1.3a708p-5, 0x1.7f1f5ap-7, -0x1.7b8b14p-6, 
    -0x1.9268b4p-7, 0x1.b52ca6p-7, -0x1.0cf88ap-5, 0x1.75d68p-8, 0x1.da49cep-6, -0x1.2af15ep-5, -0x1.1b01bap-6, 0x1.46afep-5, 
    0x1.1b54f6p-5, 0x1.b51c8ep-6, 0x1.13c32ep-5, 0x1.991374p-6, 0x1.2e9274p-7, -0x1.a20c34p-6, 0x1.2306p-6, -0x1.8ae3c4p-5, 
    -0x1.11256p-6, 0x1.272cbep-5, 0x1.a78b8p-6, -0x1.6f73c4p-5, 0x1.04999ap-14, 0x1.34664ep-7, -0x1.09d88p-5, -0x1.526bcep-6, 
    0x1.dc6666p-7, -0x1.1c5cfep-5, -0x1.29f84ep-6, -0x1.bc2a46p-6, -0x1.e98ecp-7, 0x1.77d2c4p-5, 0x1.108cdep-5, -0x1.c9bb34p-10, 
    0x1.58bd34p-5, 0x1.88f506p-5, -0x1.a8371ap-8, -0x1.94b614p-5, -0x1.a2b59ap-8, 0x1.227046p-6, -0x1.4335e6p-5, 0x1.0d754p-5, 
    0x1.858e4ep-5, -0x1.2ff376p-5, -0x1.48dc4p-7, 0x1.5459dap-6, 0x1.7ae52p-6, -0x1.2812cep-8, -0x1.5275eep-5, 0x1.8b304ep-7, 
    -0x1.e622aep-6, 0x1.d841p-7, 0x1.f20806p-6, 0x1.d39634p-9, -0x1.4ca75ap-5, -0x1.075f6ep-5, -0x1.05278p-5, -0x1.2c1064p-5, 
    -0x1.aa47e6p-7, 0x1.5ecfdap-5, 0x1.4fa4p-8, -0x1.5ef0dap-6, -0x1.36063p-5, -0x1.421c34p-8, -0x1.594074p-7, 0x1.6fa5cep-7, 
    -0x1.5d5p-13, 0x1.8422b6p-5, -0x1.c40034p-7, -0x1.07f8b4p-6, 0x1.931734p-8, -0x1.5cc4eap-5, -0x1.df24f4p-7, 0x1.06eb1ap-7, 
    0x1.375b64p-5, 0x1.8031eep-5, 0x1.766e0ep-6, -0x1.76e6cep-10, -0x1.216fbp-5, 0x1.8c79bap-5, -0x1.360766p-7, 0x1.131cf4p-7, 
    -0x1.9199cp-5, -0x1.28583ap-6, -0x1.41f08p-8, 0x1.675366p-5, -0x1.e593d4p-6, -0x1.1e2a4ap-5, 0x1.7b559p-5, -0x1.dca4fap-6
};
#ifdef __cplusplus
}  // extern "C"
#endif

#ifdef __cplusplus
extern "C" {
#endif
static const float __attribute__((section(".rodata.tvm"), aligned(16))) fused_constant_2[64000] = {
    -0x1.e405fap-6, -0x1.794a5ap-5, -0x1.f9c7b4p-6, 0x1.96c7dap-6, -0x1.79e6eep-5, 0x1.6ba0a6p-7, -0x1.964a24p-5, -0x1.09178p-5, 
    -0x1.0dad26p-6, 0x1.930b3ap-5, 0x1.d2328p-7, -0x1.945c1ep-5, 0x1.7aa04ep-6, 0x1.2c80e4p-5, 0x1.3b1346p-6, -0x1.bc662p-6, 
    0x1.9aac34p-8, -0x1.16ab94p-5, -0x1.1e1d8ep-5, -0x1.90af34p-8, -0x1.c5284p-7, -0x1.a611e6p-6, 0x1.1a188ep-6, -0x1.86151ap-7, 
    0x1.b0568p-8, 0x1.13e114p-5, -0x1.5c8p-14, -0x1.578f9ap-7, -0x1.e8259ap-8, 0x1.d72494p-6, -0x1.36f924p-5, 0x1.51512ap-5, 
    -0x1.66d69ap-8, 0x1.977e9ap-5, 0x1.faccp-7, 0x1.619126p-6, 0x1.00a27ap-6, 0x1.6961d6p-5, 0x1.3ecc24p-5, -0x1.604dfap-5, 
    0x1.1c00c6p-5, -0x1.d0fdcp-6, 0x1.31fd74p-5, 0x1.74ea8p-8, 0x1.679bbap-5, 0x1.d7378p-6, 0x1.33f514p-5, -0x1.3760b4p-5, 
    0x1.958134p-8, -0x1.725fe4p-5, 0x1.738934p-8, -0x1.69640ep-5, -0x1.098516p-5, -0x1.e934d4p-6, 0x1.c6524ep-8, -0x1.4b8c94p-5, 
    -0x1.fe487ap-6, 0x1.05a93ap-5, -0x1.4bf2a6p-5, -0x1.75e276p-5, 0x1.425cp-6, 0x1.a739dap-6, -0x1.eca9c6p-6, 0x1.85c1d6p-5, 
    -0x1.6654fap-5, -0x1.ad0634p-9, -0x1.20a37p-5, 0x1.6fb556p-5, 0x1.184c5ap-6, -0x1.5cbdcep-5, -0x1.6f0a26p-5, -0x1.0db99ap-10, 
    0x1.0a594ep-6, -0x1.1737aep-5, -0x1.058d1ap-8, 0x1.6486b4p-7, -0x1.8a7966p-6, 0x1.008a94p-6, 0x1.f56934p-6, -0x1.3abc2ep-6, 
    -0x1.1a08cep-7, -0x1.1c8a1ap-5, -0x1.4f018p-5, 0x1.021f94p-5, -0x1.3a3fc6p-6, -0x1.2815b6p-5, -0x1.fb7234p-8, 0x1.608a8p-7, 
    -0x1.66e134p-9, 0x1.943266p-11, -0x1.8fa35ap-7, -0x1.00a54p-5, 0x1.61f7fp-5, 0x1.8cf98ap-5, -0x1.88449ap-9, -0x1.827954p-6, 
    0x1.5d727ap-5, -0x1.61ffe6p-7, -0x1.9284f4p-5, 0x1.9ae42ep-6, 0x1.1a91fep-5, 0x1.21421ap-6, -0x1.85ad86p-6, -0x1.35c4cep-7, 
    -0x1.b0306p-6, 0x1.916ad6p-5, 0x1.024066p-10, 0x1.57729p-5, -0x1.840434p-5, 0x1.2afdcep-8, 0x1.2f6a4p-5, 0x1.a115dap-6, 
    0x1.96406ap-5, 0x1.de5ec6p-6, -0x1.0cff7ap-6, -0x1.71abp-7, 0x1.60197ap-5, 0x1.2976b4p-8, -0x1.d381e6p-7, -0x1.60a674p-7, 
    -0x1.512094p-5, 0x1.1a0286p-5, 0x1.ebd49ap-9, -0x1.cd0a66p-7, 0x1.10a11ep-5, 0x1.aca4b4p-8, 0x1.1105e6p-7, 0x1.0d47fp-5, 
    -0x1.3a2234p-5, 0x1.21f906p-5, -0x1.4508cep-7, 0x1.e9e5ep-6, 0x1.6a932p-5, 0x1.070d1ap-5, 0x1.17dc0ep-5, -0x1.e20ccep-12, 
    0x1.25ef94p-6, 0x1.6522fap-6, 0x1.7677e4p-5, -0x1.91dccep-10, 0x1.2f87f4p-5, -0x1.ba348ep-7, -0x1.caf0e6p-6, 0x1.bfa534p-7, 
    0x1.7603b6p-5, 0x1.0df7aap-5, -0x1.51971ap-6, 0x1.0b4e76p-5, -0x1.b2945ap-7, -0x1.5718cp-6, 0x1.627454p-6, 0x1.6f6ep-8, 
    0x1.67dadap-7, 0x1.8e4f2ap-5, -0x1.3bf34ep-5, -0x1.007aep-5, -0x1.c7151ap-7, -0x1.8d1e4ep-5, 0x1.18b43ap-6, 0x1.271ee6p-6, 
    -0x1.1e34p-11, 0x1.b4362p-6, 0x1.f1854ep-6, -0x1.9fdc5ap-6, 0x1.a896ep-6, 0x1.528c66p-9, -0x1.ce0234p-8, 0x1.69c63ap-6, 
    0x1.8e65cp-7, 0x1.14408ep-7, 0x1.bc3e74p-6, 0x1.f712b4p-6, -0x1.96740ep-7, 0x1.b71f86p-6, -0x1.d3828p-6, -0x1.1f3b54p-5, 
    -0x1.37146p-6, 0x1.497a8ap-5, 0x1.0c64cp-7, -0x1.1c1ccap-5, 0x1.0cd99ap-15, 0x1.986f36p-5, 0x1.76bd66p-6, 0x1.cfc134p-9, 
    0x1.8b087ap-6, -0x1.ae808p-7, -0x1.520a8ep-5, 0x1.14df6p-5, 0x1.f2abp-7, 0x1.a52c9ap-6, -0x1.744b24p-5, 0x1.3ac844p-5, 
    -0x1.14b5bap-6, -0x1.5d3ecp-6, 0x1.5c64bap-5, 0x1.cc0366p-6, 0x1.aad06p-6, -0x1.5e815ep-5, -0x1.3bb886p-6, 0x1.ec3166p-6, 
    -0x1.67fcdap-5, -0x1.4c6126p-7, -0x1.9061cp-5, 0x1.86314ep-6, -0x1.174bap-6, -0x1.266b26p-5, 0x1.5fc556p-5, 0x1.8a6566p-5, 
    0x1.72c2dap-6, 0x1.6b4c1ap-7, 0x1.bc9dcep-6, 0x1.6c97b4p-5, 0x1.94894ep-7, -0x1.bdfe8ep-7, -0x1.f2c2a6p-6, -0x1.43e466p-9, 
    -0x1.0c3914p-5, -0x1.e5f99ap-14, 0x1.0e09dap-7, -0x1.0718b4p-6, -0x1.6409f6p-5, -0x1.49ebp-5, -0x1.8161c6p-5, 0x1.920b9ap-6, 
    0x1.675e6ap-5, -0x1.744146p-5, 0x1.19cdp-8, 0x1.57eap-8, -0x1.1ae234p-9, -0x1.45504ep-8, -0x1.8232c6p-5, 0x1.6d9434p-7, 
    0x1.f4c8cep-10, 0x1.ce9e1ap-7, -0x1.9941aap-5, -0x1.be3d34p-6, -0x1.21fc9p-5, 0x1.0aadf4p-6, 0x1.25f53ap-5, 0x1.11b594p-6, 
    -0x1.509f8ep-6, 0x1.7938f4p-6, -0x1.402286p-6, 0x1.2b8d6ep-6, 0x1.e61df4p-6, 0x1.efb2cep-8, 0x1.b6a3p-9, 0x1.73e89ap-9, 
    0x1.0a8874p-7, -0x1.a11dcep-8, -0x1.8831e6p-7, 0x1.1c5034p-7, -0x1.889f8p-7, 0x1.57de8p-5, 0x1.1d63e6p-5, 0x1.1ed54ep-8, 
    0x1.07e876p-5, -0x1.115ba6p-6, -0x1.458754p-5, -0x1.fb7334p-6, -0x1.d309a6p-6, 0x1.17424ep-7, 0x1.a51de6p-6, -0x1.2cac26p-6, 
    -0x1.51024ep-8, 0x1.22d98ep-5, 0x1.9325cep-5, -0x1.fc091ap-7, 0x1.00d3aap-5, -0x1.3e64c6p-5, -0x1.a003f4p-7, 0x1.615666p-13, 
    -0x1.5d668ep-5, 0x1.492774p-5, -0x1.dcde6p-6, 0x1.e2538ep-6, 0x1.15e7f6p-5, 0x1.70ddc6p-5, -0x1.67509ap-9, 0x1.86b616p-5, 
    0x1.7500dap-6, -0x1.dc15e6p-6, -0x1.7aba5ep-5, 0x1.313c7ap-6, 0x1.87decp-5, 0x1.1e829ap-8, -0x1.b92e34p-7, 0x1.f5c5e6p-7, 
    0x1.80890ep-5, -0x1.4fce66p-9, -0x1.1718a6p-7, -0x1.fd109ap-6, 0x1.6c6a2ep-6, -0x1.7b0fbep-5, 0x1.db2a9ap-8, 0x1.3b86b4p-5, 
    -0x1.cc983ap-6, 0x1.68b8ap-5, 0x1.4f10cep-6, -0x1.88c08ep-5, -0x1.f6115ap-7, 0x1.044774p-5, 0x1.5f82cp-6, 0x1.daa84p-7, 
    0x1.57be44p-5, -0x1.62bbd4p-6, 0x1.15f176p-5, 0x1.090474p-7, -0x1.141814p-6, 0x1.50f1a4p-5, 0x1.8355b4p-7, 0x1.7c4c8ep-7, 
    0x1.028fb4p-8, 0x1.1f1034p-6, -0x1.dd5046p-6, 0x1.1ce6e4p-5, -0x1.d91fcep-9, 0x1.60d166p-5, 0x1.2256ap-6, -0x1.8eb10ep-6, 
    0x1.3c5d76p-5, -0x1.8a20fap-6, -0x1.8c604p-5, 0x1.91dda6p-6, 0x1.80c3e6p-5, 0x1.03200ep-5, -0x1.52f38p-5, -0x1.1f5a66p-11, 
    0x1.11798ep-7, -0x1.7d07dap-6, 0x1.4bb67p-5, -0x1.ffd89ap-8, -0x1.71d984p-5, -0x1.c05a5ap-6, -0x1.616f9ap-7, 0x1.748566p-9, 
    0x1.2c63dp-5, 0x1.673826p-6, -0x1.5b9876p-5, -0x1.490a5ap-7, 0x1.5b10dap-6, -0x1.28ca34p-6, -0x1.6ea026p-5, -0x1.934fbp-5, 
    -0x1.dc16e6p-7, 0x1.14a5a6p-6, -0x1.65d38ap-5, -0x1.c7704ep-7, 0x1.5de914p-6, 0x1.e6cf26p-7, 0x1.a4f28p-7, 0x1.d27766p-7, 
    -0x1.962dfap-6, -0x1.89fb06p-5, -0x1.73a2cep-10, 0x1.049466p-10, -0x1.87d79ap-10, -0x1.784466p-8, -0x1.4a606ep-5, -0x1.ac588p-6, 
    -0x1.7c89b4p-5, 0x1.1df4bep-5, 0x1.c7ab26p-6, 0x1.f00a74p-7, 0x1.75f87ap-6, -0x1.acf734p-11, 0x1.e9eb34p-12, -0x1.23a3bep-5, 
    -0x1.10b4p-11, -0x1.c64334p-13, -0x1.a56b7ap-6, -0x1.5f3396p-5, -0x1.1de1cp-5, -0x1.249d4ap-5, 0x1.cc938ep-6, 0x1.8b314ep-6, 
    -0x1.20975ap-6, 0x1.c7ebb4p-8, -0x1.c30226p-6, 0x1.c8714ep-8, 0x1.15fed4p-6, 0x1.37c93ap-6, -0x1.c7bd34p-6, 0x1.b3f4cep-12, 
    -0x1.918b8p-8, 0x1.0a00c4p-5, -0x1.1a9cb6p-5, 0x1.081394p-6, -0x1.7ea54p-6, 0x1.d9f50ep-6, 0x1.30a24ep-8, 0x1.dde81ap-7, 
    0x1.ef2474p-6, -0x1.7deb94p-5, 0x1.5dbbcep-6, -0x1.f5534ep-8, 0x1.02ce1ap-5, 0x1.ee203ap-6, 0x1.f12266p-6, -0x1.43ff8p-5, 
    -0x1.9d61b4p-8, 0x1.17e84ap-5, -0x1.49c47p-5, -0x1.36b314p-6, -0x1.3db38p-8, -0x1.bf45c6p-6, 0x1.6a0b26p-6, 0x1.ba5466p-7, 
    0x1.7628dep-5, 0x1.74a0b6p-5, 0x1.37974ep-6, -0x1.6292cep-9, 0x1.ea299ap-13, 0x1.bfbd34p-8, 0x1.5732p-8, -0x1.de2a4ep-6, 
    0x1.2fee94p-6, -0x1.323e86p-5, 0x1.4e57a4p-5, 0x1.c9bbeep-6, 0x1.694cep-6, 0x1.6954f6p-5, -0x1.491a4p-7, 0x1.8f8fdap-6, 
    -0x1.cdb134p-6, -0x1.06e2aep-6, -0x1.e519aep-6, -0x1.23774ep-5, 0x1.6089cep-6, -0x1.6f692ap-5, -0x1.55de46p-5, 0x1.49dc86p-6, 
    0x1.36251ap-5, -0x1.1068p-9, 0x1.720c54p-5, 0x1.6da8cep-9, -0x1.ed4626p-7, -0x1.087d8p-8, 0x1.105a86p-5, 0x1.028334p-11, 
    0x1.3f7726p-7, 0x1.ce9234p-9, 0x1.d38d8p-7, -0x1.822dcep-9, 0x1.5dfb34p-8, -0x1.7853dap-6, 0x1.33a5e6p-8, 0x1.05caa6p-7, 
    0x1.02p-9, 0x1.bf98dap-6, 0x1.52c26ap-5, -0x1.52344ep-6, -0x1.084b2ep-5, -0x1.982c44p-5, 0x1.26302ep-5, 0x1.8acf06p-6, 
    -0x1.38732ep-6, 0x1.412996p-5, 0x1.c434a6p-6, -0x1.7559cep-8, -0x1.3184eep-6, 0x1.6fcba6p-7, -0x1.824224p-5, -0x1.a01866p-7, 
    -0x1.17626ep-6, -0x1.0784a6p-6, -0x1.444d3ap-6, -0x1.ea8fcep-7, -0x1.0cc0dap-7, -0x1.3260cap-5, -0x1.593966p-6, 0x1.d3f7fap-6, 
    -0x1.19c866p-5, -0x1.246404p-5, 0x1.6a4be6p-5, -0x1.b96df4p-6, 0x1.2fe7cep-7, -0x1.4c7d94p-6, 0x1.3fdb4p-6, 0x1.2bf0dep-5, 
    -0x1.4d09fp-5, -0x1.d3d99ap-11, 0x1.00759p-5, -0x1.262c56p-5, 0x1.45c2p-5, 0x1.3d230ep-6, 0x1.afb3a6p-7, -0x1.453904p-5, 
    -0x1.09faep-6, -0x1.11701ap-7, -0x1.44a3dap-6, 0x1.a90834p-8, 0x1.1bc08p-6, -0x1.61fe9ap-9, 0x1.41dd0ep-7, 0x1.c1448ep-6, 
    -0x1.caca1ap-8, -0x1.143d7p-5, 0x1.cd970ep-7, -0x1.80689ap-6, 0x1.21f7cp-7, 0x1.92925ep-5, 0x1.e8c666p-14, 0x1.ab488p-7, 
    -0x1.10f31p-5, 0x1.79744ep-7, -0x1.10ca86p-6, -0x1.0a7c8p-7, 0x1.39f3c6p-5, -0x1.91650ep-7, 0x1.552f24p-5, -0x1.fc767ap-6, 
    -0x1.9bde7ap-6, 0x1.8575cep-9, -0x1.e22fp-9, -0x1.720d26p-7, -0x1.1e08ep-5, 0x1.960b8p-6, 0x1.05254ep-8, -0x1.71fe7p-5, 
    -0x1.d9f8e6p-8, 0x1.dcbb9ap-6, 0x1.a0f534p-8, 0x1.53ffdap-6, -0x1.9c9f5ap-7, -0x1.6370fap-5, -0x1.3fa306p-5, -0x1.b4ef34p-10, 
    -0x1.1ad196p-5, -0x1.98e38p-7, -0x1.d13d8p-6, 0x1.beef86p-6, -0x1.03c434p-7, 0x1.232514p-5, 0x1.f2d9b4p-8, 0x1.7e65fep-5, 
    -0x1.745766p-8, 0x1.9f82p-8, 0x1.6cba8p-7, 0x1.670034p-9, 0x1.50ebap-5, -0x1.039e8p-6, -0x1.2b6006p-5, -0x1.28bd4p-6, 
    0x1.6df6p-8, -0x1.05d08p-7, 0x1.253f34p-7, 0x1.2d7c4ep-8, 0x1.bd7866p-7, 0x1.26a15ap-7, -0x1.e207cp-6, 0x1.b1b774p-7, 
    -0x1.86208ep-6, 0x1.38d11ap-6, -0x1.d2cb46p-6, -0x1.85d44p-7, -0x1.9df394p-6, -0x1.7d7336p-5, -0x1.55112p-6, -0x1.3b307p-5, 
    -0x1.c97334p-13, -0x1.09799ap-8, 0x1.6784a4p-5, 0x1.41933ep-5, 0x1.7920b4p-7, -0x1.cf0726p-6, -0x1.404ecp-5, 0x1.1dd51ap-6, 
    -0x1.c13a9ap-9, -0x1.2e8b9ap-6, 0x1.845cd4p-6, 0x1.07a336p-5, 0x1.0549fep-5, 0x1.69e066p-7, -0x1.27e54ep-5, 0x1.fc7194p-6, 
    -0x1.5b752p-6, 0x1.22ca9p-5, 0x1.b1c4f4p-7, -0x1.9307p-7, 0x1.d033dap-7, -0x1.3e72eep-6, 0x1.7c6a34p-8, -0x1.5988dp-5, 
    -0x1.23aa7ap-5, -0x1.96524p-6, -0x1.2f855ep-5, -0x1.e83f34p-11, -0x1.8293aep-5, 0x1.6ff2aep-6, 0x1.3d5b26p-5, -0x1.273826p-6, 
    0x1.91ba3p-5, 0x1.0e8b9ep-5, -0x1.8bae4ep-7, -0x1.51019ap-8, -0x1.0b9226p-7, 0x1.041524p-5, 0x1.f8c966p-8, 0x1.e59fcep-6, 
    0x1.98b844p-5, 0x1.8a34a6p-5, 0x1.89a2fp-5, -0x1.5c04b4p-6, -0x1.d1055ap-7, -0x1.c5e4e6p-8, 0x1.def58p-8, 0x1.22d236p-5, 
    -0x1.31101ap-8, 0x1.547cb4p-5, -0x1.6b074ep-6, -0x1.31bfa6p-6, -0x1.2a1334p-7, -0x1.ce7f26p-7, 0x1.208cb4p-7, 0x1.40d026p-7, 
    -0x1.bff5dap-6, 0x1.7e6da6p-7, -0x1.f33da6p-6, 0x1.45d88ap-5, -0x1.732504p-5, 0x1.d13d34p-7, -0x1.50611ap-8, -0x1.5a526p-6, 
    -0x1.88955ep-5, -0x1.b1e5cep-8, -0x1.f8e09ap-6, 0x1.55b5f4p-7, -0x1.607f14p-6, -0x1.16b3cep-5, -0x1.3a0f06p-6, 0x1.12621ap-5, 
    -0x1.8e9626p-5, 0x1.591c7ap-6, 0x1.07b334p-7, 0x1.a805dap-7, -0x1.428004p-5, 0x1.d2fb26p-6, 0x1.3385fap-5, 0x1.89da0ap-5, 
    -0x1.3a213ap-5, 0x1.24d774p-5, -0x1.810bp-5, -0x1.33dca6p-6, 0x1.527a66p-7, 0x1.547ddap-5, -0x1.22b7e6p-8, 0x1.4d8a6ep-6, 
    -0x1.570a1p-5, -0x1.aac9bap-6, -0x1.f9274p-7, -0x1.45f524p-5, 0x1.4cfd4p-5, -0x1.dd9edap-6, 0x1.5ce99ap-11, 0x1.1a06p-9, 
    -0x1.eb0c1ap-6, 0x1.875124p-5, 0x1.ed394ep-8, 0x1.3032b4p-7, 0x1.6e3046p-5, -0x1.b0406ep-6, -0x1.6cd0b4p-6, -0x1.56f78p-8, 
    -0x1.298b04p-5, -0x1.c523aep-6, -0x1.d0f31ap-8, 0x1.d0af26p-6, 0x1.d0eba6p-6, -0x1.1705f6p-5, 0x1.2be334p-11, -0x1.93f4cep-8, 
    -0x1.64518ep-7, -0x1.8e7d44p-5, -0x1.398bdap-6, 0x1.ca5cb4p-7, -0x1.67d0f4p-6, 0x1.0fb714p-6, -0x1.fdbf34p-8, -0x1.29f6f4p-6, 
    -0x1.8dac86p-6, 0x1.90d28ep-6, 0x1.bd379ap-9, -0x1.012d36p-5, 0x1.0af79ap-7, 0x1.7d59p-9, -0x1.70b0ap-6, 0x1.0ab744p-5, 
    0x1.72eab4p-8, 0x1.f38bbap-6, -0x1.18bee4p-5, -0x1.07726ep-6, -0x1.3d85a4p-5, 0x1.def01ap-8, -0x1.75d6c4p-5, -0x1.7a9e9ap-9, 
    -0x1.f2c56p-6, -0x1.2cf9ap-5, 0x1.260726p-7, -0x1.ec168p-8, -0x1.3290b4p-6, 0x1.74f9d4p-5, -0x1.8eb624p-5, 0x1.a2c1f4p-6, 
    0x1.18b334p-5, 0x1.580e4ep-5, -0x1.814c6p-5, -0x1.4517dp-5, 0x1.7712ep-5, 0x1.e0e234p-8, -0x1.decbfap-6, -0x1.6018cp-5, 
    0x1.eadefap-6, 0x1.e315b4p-6, -0x1.912726p-5, 0x1.618ap-10, 0x1.556f84p-5, 0x1.b501ep-6, 0x1.f41a66p-10, -0x1.958ebap-5, 
    -0x1.6a625ap-7, -0x1.55b1e6p-8, 0x1.b49d8ep-6, -0x1.6d46c4p-5, 0x1.58c294p-6, -0x1.7b99cep-7, 0x1.02581ap-6, -0x1.e5dafap-6, 
    -0x1.84afp-7, 0x1.4bce2p-5, 0x1.1951a6p-5, -0x1.85b694p-5, 0x1.e4c76ep-6, 0x1.f516fap-6, -0x1.331cdp-5, -0x1.093d8p-6, 
    -0x1.7cdd06p-5, 0x1.56c26ap-5, 0x1.8e09ap-5, -0x1.994e66p-12, 0x1.03ce84p-5, 0x1.36404p-6, 0x1.d2c1cp-6, 0x1.912c4ep-5, 
    -0x1.6f3aep-5, -0x1.b2869ap-7, -0x1.92a1f6p-5, -0x1.8ed754p-5, 0x1.0e199ap-5, -0x1.67169ap-9, -0x1.0f1034p-6, -0x1.45ea5ep-5, 
    -0x1.73a544p-5, 0x1.8447b4p-6, -0x1.5b3826p-6, 0x1.694f5ap-5, 0x1.514fa6p-7, 0x1.36a24ep-7, -0x1.5b2ebp-5, 0x1.7d6224p-5, 
    0x1.44a674p-6, -0x1.b79bf4p-6, 0x1.584b6ep-6, -0x1.ecfe4p-6, -0x1.cb7e34p-8, -0x1.26d51ap-7, -0x1.110a66p-11, -0x1.adf44ep-6, 
    -0x1.e649p-6, -0x1.f24ep-7, -0x1.6eea34p-8, -0x1.5c3694p-6, 0x1.40e286p-6, 0x1.3d425ap-5, 0x1.6f7d44p-5, -0x1.0b235ap-5, 
    -0x1.3f56e6p-6, -0x1.1323ap-5, -0x1.8b5534p-6, 0x1.8173dp-5, 0x1.b72ce6p-8, -0x1.7abap-8, 0x1.92fc46p-6, 0x1.18adaap-5, 
    0x1.7ee2b4p-8, -0x1.5f81c4p-5, 0x1.c883cep-9, -0x1.d2ccp-9, -0x1.bff06ep-6, -0x1.3c5cp-10, -0x1.48ff8ap-5, 0x1.155bcap-5, 
    -0x1.900c5ap-7, 0x1.55d89ap-8, -0x1.3c914p-6, 0x1.3aa6c4p-5, 0x1.ed4914p-6, -0x1.024c7ap-6, -0x1.4a4ep-7, -0x1.2534p-7, 
    -0x1.0e330ep-6, 0x1.f8938p-6, -0x1.77662p-6, -0x1.4ffe4ep-6, -0x1.44169p-5, 0x1.7df29ap-8, -0x1.808ea6p-6, 0x1.0482bep-5, 
    -0x1.bfee26p-6, -0x1.f0fb8p-6, -0x1.3621dp-5, 0x1.7efb0ap-5, -0x1.259ceap-5, 0x1.753166p-6, 0x1.b456bap-6, 0x1.084c7ap-5, 
    -0x1.0b648ep-7, -0x1.04c666p-11, 0x1.232faep-5, 0x1.f5295ap-7, -0x1.3f57bap-5, 0x1.9d77cep-6, 0x1.e777dap-6, 0x1.338eaep-5, 
    -0x1.98369ap-9, -0x1.06894p-6, 0x1.e8ff06p-6, -0x1.3fc66ep-6, 0x1.380934p-5, 0x1.b4b3cp-7, 0x1.79a6cap-5, 0x1.199da4p-5, 
    0x1.389de6p-8, -0x1.eced66p-8, 0x1.81891ap-6, -0x1.82e9cap-5, 0x1.04fc26p-7, 0x1.0cd36ep-6, -0x1.a01314p-6, 0x1.788026p-7, 
    -0x1.6aed7ap-6, -0x1.52247p-5, 0x1.38b40ep-6, -0x1.3a237ap-6, -0x1.3f4d94p-5, -0x1.2a2734p-5, -0x1.a3917ap-6, 0x1.48e25ap-7, 
    -0x1.a2c9cep-6, 0x1.24e6p-8, -0x1.ef9d1ap-6, 0x1.c7421ap-6, -0x1.6fd5f4p-6, -0x1.86a27ap-5, 0x1.aa11p-8, 0x1.6a19cp-6, 
    0x1.01729ap-8, -0x1.24a8bep-5, -0x1.34444ep-7, 0x1.8deb9ap-6, -0x1.62fe24p-5, 0x1.96763ep-5, -0x1.fad8e6p-6, -0x1.50fcb4p-8, 
    0x1.8d72a6p-5, -0x1.2d78ep-5, -0x1.a7bca6p-7, 0x1.27f58ep-5, -0x1.7f9ab6p-5, -0x1.429d6p-6, 0x1.67101ap-6, -0x1.b9781ap-7, 
    0x1.716ad4p-5, -0x1.72cb6ap-5, 0x1.189294p-6, -0x1.6595c4p-5, -0x1.24b5b4p-7, 0x1.568b2p-5, -0x1.09a9c6p-5, 0x1.1f76cep-10, 
    0x1.1c064p-5, -0x1.932cdap-5, -0x1.b420cep-6, -0x1.1bc826p-6, 0x1.4b929p-5, 0x1.3fe02ep-5, -0x1.beeb6p-6, 0x1.83ba54p-5, 
    -0x1.6288c4p-5, 0x1.3b0f4p-7, -0x1.1a2bdep-5, -0x1.ec6c8p-8, -0x1.0d3e5ap-6, 0x1.2eb286p-6, 0x1.729f9ap-7, 0x1.ad0aaep-6, 
    0x1.43620ep-6, -0x1.005666p-10, -0x1.4e7ef4p-6, -0x1.1431cp-5, -0x1.17b266p-5, 0x1.69008p-8, 0x1.63051ap-5, 0x1.31ba26p-7, 
    0x1.dfc18ep-7, 0x1.c351a6p-7, -0x1.5a09cp-5, 0x1.5fa90ep-5, -0x1.063454p-5, 0x1.450dcep-9, -0x1.556bb4p-8, -0x1.1d1034p-9, 
    -0x1.317d5p-5, -0x1.6add26p-6, 0x1.2bd29ap-8, -0x1.904074p-7, 0x1.a9b25ap-7, -0x1.204b9ap-8, 0x1.1bdf8ep-6, -0x1.43c43ap-5, 
    0x1.24d74ep-6, -0x1.47e4dap-6, -0x1.498d74p-5, -0x1.7e06f4p-5, 0x1.69bceep-6, -0x1.b00bep-6, 0x1.1a257p-5, 0x1.7125cep-5, 
    0x1.cf9e4ep-7, -0x1.ce942p-6, 0x1.5e3514p-6, 0x1.ef9e66p-10, 0x1.c42134p-10, 0x1.1e169ap-8, 0x1.69e8b6p-5, -0x1.56e7bp-5, 
    -0x1.647566p-6, 0x1.12c456p-5, 0x1.44568ep-7, -0x1.57c25ep-5, 0x1.4a78aap-5, 0x1.572ebap-6, -0x1.6b7554p-6, -0x1.272c34p-7, 
    -0x1.1e2406p-6, -0x1.8bb49ep-5, -0x1.9ff9aep-6, -0x1.9cba34p-9, -0x1.8edfbap-5, -0x1.e666ep-6, 0x1.952a16p-5, -0x1.79d964p-5, 
    -0x1.2af88p-5, 0x1.25b5f6p-5, 0x1.85fa4ep-7, 0x1.f2249ap-9, -0x1.1dd606p-5, -0x1.8be75ap-5, -0x1.14d51ep-5, -0x1.106bb4p-8, 
    0x1.d759e6p-7, 0x1.f1333ap-6, -0x1.32a8a6p-7, 0x1.8cfa06p-5, -0x1.713706p-5, -0x1.6283e6p-5, -0x1.dfa206p-6, -0x1.3a8b94p-6, 
    0x1.1964b4p-8, -0x1.3c87aep-6, 0x1.43556p-6, 0x1.0e9716p-5, 0x1.ed2ef4p-7, 0x1.ea46fap-6, 0x1.cc1066p-10, -0x1.4c2c26p-5, 
    -0x1.903dp-7, 0x1.44934ep-7, -0x1.469faep-5, -0x1.555716p-5, 0x1.8f6ccep-10, -0x1.32cb2p-6, 0x1.6a4d94p-6, -0x1.98209ap-6, 
    -0x1.d6c18p-6, 0x1.0ceeap-5, 0x1.0e4aeep-5, 0x1.8edf74p-5, 0x1.7229aep-5, -0x1.70727p-5, 0x1.0718a6p-5, -0x1.48b80ep-5, 
    0x1.872a84p-5, -0x1.7bebc6p-5, -0x1.4f0726p-7, -0x1.c19p-8, -0x1.8dfae4p-5, -0x1.1c1734p-10, -0x1.22e036p-5, 0x1.51be6ap-5, 
    0x1.2cf18p-6, -0x1.728eb6p-5, 0x1.3284e6p-7, -0x1.cb3ecep-7, 0x1.f4401ap-7, -0x1.7f178p-7, 0x1.ed074p-6, -0x1.1cfd66p-9, 
    0x1.326acep-5, -0x1.a406dap-7, 0x1.b4e68p-7, 0x1.25c57ap-5, -0x1.e9c5p-6, 0x1.89cccep-15, -0x1.c20f6ep-6, 0x1.abb954p-6, 
    -0x1.e5db66p-9, 0x1.85cce6p-6, 0x1.6b8b26p-5, 0x1.67cfep-6, -0x1.220feap-5, 0x1.69ab26p-7, -0x1.519fcep-7, 0x1.6008a6p-6, 
    -0x1.7d1626p-7, 0x1.061fd4p-6, 0x1.517c0ep-6, 0x1.f07b34p-6, -0x1.b64734p-9, -0x1.832366p-7, -0x1.1f104p-6, -0x1.e56ep-6, 
    0x1.94a2e6p-6, 0x1.63c734p-10, 0x1.3c6566p-9, -0x1.a33a2p-6, 0x1.3011cep-5, -0x1.38ap-14, -0x1.c66dp-7, 0x1.7850eep-6, 
    0x1.3d907p-5, 0x1.b86186p-6, -0x1.bb3214p-6, 0x1.d92e34p-6, -0x1.fd096p-6, -0x1.910faep-5, 0x1.5da666p-7, -0x1.cefcp-6, 
    0x1.4da5p-6, 0x1.7eca66p-6, -0x1.2b4f34p-10, 0x1.76f5c4p-5, -0x1.b7f41ap-7, -0x1.89cdcep-5, 0x1.a79c1ap-8, 0x1.e91b66p-6, 
    0x1.020844p-5, -0x1.c8ccp-8, 0x1.7c96f4p-5, 0x1.2a2e4ep-5, -0x1.f6889ap-8, -0x1.8a43e6p-7, -0x1.c19c8p-8, -0x1.9329a6p-7, 
    0x1.69dc66p-8, -0x1.d659cp-7, 0x1.8e5856p-5, 0x1.1e2a4p-6, -0x1.7baecep-10, 0x1.3bda8p-8, -0x1.801324p-5, -0x1.c8464ep-8, 
    -0x1.19158p-7, -0x1.f3149ap-6, -0x1.6d6e4p-6, -0x1.add6bap-6, 0x1.d5f02ep-6, 0x1.31cbcep-6, -0x1.41f65ep-5, 0x1.8b4adap-5, 
    -0x1.2f5p-11, 0x1.617d14p-5, 0x1.3ee1a4p-5, 0x1.89d3d6p-5, 0x1.663e1ep-5, -0x1.248f36p-5, -0x1.dd1094p-6, -0x1.b55154p-6, 
    0x1.7055c6p-5, 0x1.073776p-5, -0x1.384c8p-8, -0x1.2b05c4p-5, 0x1.c9b51ap-7, 0x1.a2e874p-7, 0x1.36b09ap-8, 0x1.29ac0ep-5, 
    -0x1.74e3p-6, 0x1.dc1b66p-7, -0x1.68089p-5, 0x1.40ddcep-9, 0x1.bef334p-13, 0x1.32ec64p-5, -0x1.013fc6p-6, -0x1.1348d6p-5, 
    -0x1.46cc0ep-7, -0x1.d7474ep-7, 0x1.e89534p-8, -0x1.d9fa74p-6, 0x1.a668a6p-7, -0x1.0e9446p-6, 0x1.4af9p-5, 0x1.a6d6eep-6, 
    -0x1.df02e6p-7, -0x1.7244bp-5, -0x1.8fcf5ap-5, -0x1.8d4ad4p-6, 0x1.42780ap-5, -0x1.186c04p-5, 0x1.8d525ap-6, -0x1.d25006p-6, 
    0x1.49c086p-6, 0x1.40659ap-8, -0x1.89215ap-5, 0x1.e1a19ap-10, 0x1.113c9ap-5, 0x1.236406p-5, 0x1.52d2fap-5, -0x1.fa38p-7, 
    -0x1.7c732ep-5, 0x1.5eb67ep-5, 0x1.bd264p-6, -0x1.1676eep-5, 0x1.097dfp-5, -0x1.558ae6p-5, -0x1.5d319ap-7, -0x1.04e124p-5, 
    0x1.cadd34p-8, -0x1.c113f4p-7, 0x1.b7858p-6, 0x1.1cba4ep-7, 0x1.60a51ep-5, -0x1.40abp-8, 0x1.5fde6p-5, 0x1.97054p-7, 
    -0x1.25dd6ep-5, -0x1.1db9p-7, 0x1.ab8b5ap-6, -0x1.00f966p-5, 0x1.be8e3ap-6, -0x1.340b66p-8, 0x1.2add34p-7, -0x1.89e64ep-7, 
    -0x1.12946p-5, 0x1.a18d86p-6, 0x1.7b539ep-5, 0x1.3aad66p-5, -0x1.5bd23ep-5, -0x1.5eb8aap-5, 0x1.f5298ep-7, -0x1.5c194ep-8, 
    -0x1.91734p-7, -0x1.bf6d4p-6, -0x1.7d5e0ep-7, -0x1.15fdaap-5, 0x1.8c004ep-5, 0x1.89f214p-5, 0x1.821abap-5, 0x1.2c5534p-10, 
    0x1.97729ap-7, -0x1.24ed64p-5, 0x1.76714ep-7, 0x1.2006p-7, -0x1.c81e34p-6, -0x1.9c56cep-6, -0x1.288c54p-5, 0x1.499ecep-10, 
    0x1.6e9de6p-6, -0x1.5a1a2ap-5, 0x1.38628p-8, -0x1.0dce74p-6, 0x1.1fda5ap-6, 0x1.2df386p-6, -0x1.8b5566p-9, -0x1.bed9cep-9, 
    -0x1.6f13eep-5, 0x1.2b369p-5, -0x1.179014p-5, 0x1.e10026p-7, 0x1.19429ap-9, 0x1.597acep-8, -0x1.5b56f4p-7, -0x1.4c47e6p-8, 
    -0x1.016654p-5, 0x1.eb209ap-7, -0x1.c4f84p-7, -0x1.4d125ap-7, -0x1.1e8f56p-5, -0x1.6243eap-5, -0x1.6acf56p-5, -0x1.03c53p-5, 
    0x1.611fb4p-5, -0x1.8ceb0ap-5, 0x1.c7fe0ep-6, 0x1.714836p-5, -0x1.634b14p-5, 0x1.f9b8fap-6, -0x1.116894p-5, -0x1.8ab0c6p-6, 
    0x1.6732cep-7, -0x1.56f834p-9, -0x1.fedc74p-7, -0x1.8fcf0ap-5, 0x1.6d4cp-9, 0x1.af531ap-7, 0x1.4f741ap-6, 0x1.00d174p-7, 
    0x1.e66eb4p-7, 0x1.4aabdp-5, -0x1.5a7166p-9, 0x1.d511dap-7, -0x1.fdb334p-13, 0x1.f2c366p-8, 0x1.243f0ep-6, 0x1.12bf56p-5, 
    -0x1.92a70ap-5, 0x1.faadeep-6, -0x1.36e256p-5, 0x1.1b29p-5, 0x1.8c031ap-5, 0x1.acb774p-7, -0x1.8147dep-5, -0x1.1e2a9ap-9, 
    -0x1.57ded4p-6, 0x1.6faa4p-7, -0x1.e09234p-8, 0x1.69c004p-5, 0x1.7b9816p-5, -0x1.177eaep-5, 0x1.34db26p-6, 0x1.b48f8ep-6, 
    -0x1.8530dp-5, -0x1.2c85p-9, -0x1.006c3ap-6, 0x1.513b66p-7, 0x1.11109p-5, -0x1.16c106p-5, -0x1.7fdd34p-5, 0x1.97f0ap-5, 
    0x1.452adp-5, 0x1.6f801ap-6, 0x1.065e5ap-5, -0x1.50c31ap-8, 0x1.46444ep-7, 0x1.408e7p-5, 0x1.7feep-9, 0x1.6cc0cp-6, 
    -0x1.f84ecep-9, 0x1.a9f466p-6, -0x1.40dc9ap-8, -0x1.8f976ap-5, 0x1.8fae66p-10, 0x1.f749a6p-6, 0x1.64afap-6, 0x1.931354p-6, 
    -0x1.1b9cf4p-6, 0x1.3ad386p-5, 0x1.29da1ap-7, 0x1.1b356p-6, 0x1.6dcaaap-5, 0x1.f66134p-8, 0x1.458266p-6, -0x1.aa6254p-6, 
    -0x1.36b9f4p-7, 0x1.c3ab34p-11, -0x1.97e69p-5, -0x1.a8f234p-6, -0x1.6b64aep-5, 0x1.95e3aep-5, -0x1.39538ep-5, -0x1.33856ap-5, 
    0x1.31b8e6p-6, 0x1.c26e86p-6, -0x1.2a104p-7, 0x1.1db266p-11, -0x1.3fcaap-5, 0x1.4b781p-5, 0x1.95729ap-8, 0x1.346466p-8, 
    -0x1.8e7156p-5, -0x1.3ed114p-6, 0x1.3b6c0ep-5, -0x1.3b2bf6p-5, -0x1.70388p-6, -0x1.93cbb6p-5, -0x1.2b1ap-10, 0x1.203a34p-6, 
    0x1.f81914p-6, -0x1.6873fap-5, -0x1.80699ep-5, -0x1.0e60eap-5, -0x1.ddb186p-6, 0x1.d514ep-6, 0x1.718dep-6, -0x1.3b7c4p-5, 
    0x1.3cd51ap-8, -0x1.724144p-5, -0x1.0c0e8p-6, 0x1.629666p-12, 0x1.1350f6p-5, -0x1.2a80e6p-5, -0x1.7623p-7, 0x1.72deap-6, 
    0x1.263204p-5, -0x1.8a982p-6, -0x1.701854p-6, -0x1.264ae6p-5, 0x1.4bf3e6p-8, 0x1.5859p-9, -0x1.e8a5a6p-6, 0x1.026ad4p-5, 
    0x1.e045aep-6, 0x1.05e64ep-6, -0x1.c1db74p-7, -0x1.89f8e6p-7, -0x1.3ab4a6p-5, 0x1.2e9566p-8, 0x1.46ceep-5, -0x1.dae4cp-7, 
    -0x1.28211ap-5, -0x1.dad9cp-6, -0x1.498ef4p-5, 0x1.2f381ap-7, -0x1.4a757ap-6, -0x1.54700ap-5, -0x1.5f416ep-6, -0x1.6d62f4p-7, 
    0x1.6f4e1ap-8, 0x1.03e0aep-5, -0x1.4d42p-8, -0x1.edb44ep-8, -0x1.8956cep-5, -0x1.91c0eap-5, -0x1.709d9ap-10, -0x1.731ea6p-6, 
    -0x1.ba131ap-7, 0x1.15a4p-11, -0x1.eaaa4ep-8, -0x1.205aa6p-7, 0x1.63b3fap-6, 0x1.960fcp-6, -0x1.4edf8p-6, 0x1.6127f4p-7, 
    0x1.866f8ep-6, -0x1.758d76p-5, -0x1.2a4feep-6, 0x1.4acf4ep-5, -0x1.90cf86p-5, 0x1.848806p-5, 0x1.c07466p-9, 0x1.e7bab4p-7, 
    -0x1.50c99ap-8, -0x1.9b76b4p-7, 0x1.6afbep-5, -0x1.a0bef4p-7, -0x1.03beaep-6, -0x1.7e7a1ep-5, -0x1.9b7bfap-6, -0x1.ba58cep-7, 
    0x1.6722a6p-7, 0x1.9b6274p-7, -0x1.b02ee6p-8, -0x1.e9e14ep-6, -0x1.76261ap-8, 0x1.68265ap-6, -0x1.803344p-5, 0x1.621c3ap-6, 
    -0x1.18c98p-7, 0x1.85479ap-7, -0x1.72f76ap-5, -0x1.ee8334p-11, -0x1.324266p-8, 0x1.ebec66p-8, 0x1.2c5edap-7, 0x1.e32146p-6, 
    0x1.b11d9ap-11, 0x1.43544ep-5, 0x1.300ea6p-7, 0x1.8fec6ap-5, -0x1.1063cp-7, 0x1.12a3fep-5, 0x1.aa17p-7, 0x1.26f9c4p-5, 
    -0x1.084486p-5, -0x1.ab5f8p-8, -0x1.49d2aep-5, 0x1.5b1e4ep-5, 0x1.3b7b8p-5, 0x1.e3b5bap-6, -0x1.b4d7cep-8, -0x1.6276dp-5, 
    0x1.d1fe4ep-6, -0x1.72ed3ap-6, 0x1.633c6ep-6, 0x1.a3d99ap-13, 0x1.a410dap-6, -0x1.90229ap-5, -0x1.198e8p-6, -0x1.485226p-7, 
    -0x1.40f73ap-6, 0x1.02739ap-9, -0x1.7a7966p-5, 0x1.349cd4p-5, -0x1.478f4ap-5, 0x1.35e284p-5, 0x1.96ce5ap-6, -0x1.a960a6p-6, 
    0x1.80a65ap-6, 0x1.e804p-10, -0x1.5b026p-5, -0x1.1fa8cp-7, 0x1.9fb366p-7, 0x1.020466p-8, -0x1.6fff8p-5, 0x1.0ca5fap-5, 
    -0x1.f72e9ap-9, 0x1.e8c34ep-6, -0x1.c0971ap-8, -0x1.3c89eep-6, -0x1.03b516p-5, 0x1.37e7bap-6, -0x1.cc4bp-7, -0x1.843226p-6, 
    -0x1.73034p-7, -0x1.94378ep-6, 0x1.7508f6p-5, 0x1.00d1cep-7, -0x1.d5617ap-6, 0x1.10d93ep-5, 0x1.3617b4p-8, 0x1.2a3ddap-7, 
    0x1.be33ap-6, -0x1.430596p-5, -0x1.d6c2e6p-6, 0x1.77ebep-6, 0x1.74941ap-7, 0x1.3041fp-5, -0x1.6418p-6, -0x1.fb17cep-9, 
    0x1.c69826p-6, 0x1.8a0c1ap-6, 0x1.5695d4p-6, 0x1.b72f54p-6, -0x1.cee434p-7, -0x1.ef959ap-9, 0x1.e216b4p-7, 0x1.7738f4p-7, 
    -0x1.6beb6p-6, 0x1.6ebffap-6, -0x1.9e6a5ap-6, -0x1.8686aap-5, -0x1.1c71bap-6, -0x1.11d53p-5, -0x1.909c3ap-6, 0x1.f57b74p-7, 
    -0x1.591c04p-5, -0x1.49308p-5, -0x1.02c334p-6, -0x1.8329ep-6, -0x1.3a0ca4p-5, 0x1.dc40b4p-7, 0x1.dd2ddap-7, -0x1.8406f4p-5, 
    -0x1.498304p-5, 0x1.c367p-8, -0x1.5976cp-6, -0x1.9782d4p-6, 0x1.4a7eb4p-6, -0x1.2775cep-9, 0x1.97a29ap-7, -0x1.8354cep-10, 
    0x1.206fb4p-5, 0x1.2d40c6p-6, -0x1.41b7p-9, 0x1.99660ap-5, -0x1.648p-12, 0x1.6ab326p-5, -0x1.3aa5b4p-6, -0x1.8f04b6p-5, 
    -0x1.a97eep-6, 0x1.6a4fbp-5, -0x1.124cd6p-5, -0x1.d4af54p-6, 0x1.68408ep-5, -0x1.8a0d8p-5, -0x1.5f2eeap-5, 0x1.0bdfc4p-5, 
    0x1.81834p-7, 0x1.b5bd2ep-6, 0x1.f9bf9ap-10, -0x1.80e19ap-11, -0x1.430966p-8, 0x1.f10ef4p-7, -0x1.4d5ecp-6, 0x1.e0688ep-7, 
    -0x1.64dbdep-5, 0x1.222f54p-5, -0x1.97dc3ep-5, -0x1.16b966p-5, -0x1.786b5p-5, -0x1.1a0106p-6, -0x1.4c7826p-7, -0x1.031b94p-5, 
    -0x1.a9b21ap-7, 0x1.0eafc6p-5, -0x1.32118p-7, -0x1.66f3f4p-6, -0x1.f6102ep-6, 0x1.ff844ep-7, 0x1.7a4e9ap-5, -0x1.3b473p-5, 
    0x1.8a0714p-6, 0x1.bfa20ep-7, 0x1.c5818ep-6, 0x1.88c8fep-5, 0x1.11db26p-6, 0x1.21fdep-6, -0x1.907a0ep-6, -0x1.7706bep-5, 
    -0x1.e84a66p-11, -0x1.106d3ep-5, 0x1.2b67e6p-7, 0x1.030e94p-6, 0x1.caa59ap-8, 0x1.79dfb4p-8, -0x1.4f86eep-6, 0x1.1f94d6p-5, 
    0x1.2aa6bp-5, 0x1.2f246p-6, 0x1.7179a6p-6, -0x1.42a676p-5, 0x1.841acap-5, 0x1.85f25p-5, 0x1.4f2534p-7, 0x1.2d7cfp-5, 
    0x1.58b0aep-6, 0x1.17c4cep-8, 0x1.096666p-6, 0x1.8466c6p-6, -0x1.7253d6p-5, -0x1.9c65bap-6, -0x1.0ebc4ep-5, 0x1.203e14p-6, 
    0x1.227b34p-7, -0x1.7cabc6p-5, -0x1.8528fp-5, 0x1.ed7b26p-6, 0x1.31bc04p-5, 0x1.70f6ep-6, 0x1.1b2286p-6, 0x1.ad3adap-6, 
    -0x1.80cc5ap-6, -0x1.329bd4p-5, 0x1.75674ep-7, 0x1.7e92f4p-6, -0x1.a99b86p-6, 0x1.d7f6p-9, 0x1.623e66p-5, 0x1.16c9e4p-5, 
    0x1.55e40ep-7, 0x1.a640e6p-7, -0x1.ef0af4p-7, 0x1.f807aep-6, 0x1.04f574p-7, 0x1.c8d99ap-9, 0x1.2c1266p-7, 0x1.09c864p-5, 
    0x1.51d1ap-5, 0x1.8a239ap-7, -0x1.9dcf26p-7, -0x1.639b8p-8, 0x1.3f52cep-5, -0x1.252696p-5, -0x1.268566p-6, 0x1.52eb1ep-5, 
    0x1.9207bep-5, -0x1.b5f334p-15, 0x1.89679ap-9, 0x1.8d980ep-7, 0x1.3ebc26p-6, -0x1.1ab8e6p-5, 0x1.13559ap-5, -0x1.453a7ep-5, 
    -0x1.db251ap-6, -0x1.55b666p-13, -0x1.c1d6dap-7, 0x1.7f0f1ap-5, 0x1.2089cep-5, -0x1.933f36p-5, -0x1.34e7c6p-5, 0x1.ae3606p-6, 
    0x1.700eeep-5, -0x1.5b4156p-5, 0x1.47f22p-6, -0x1.7f609ap-5, 0x1.6fb97ap-5, -0x1.8d1526p-6, -0x1.9a6b0ep-6, 0x1.33d1p-6, 
    -0x1.e9c526p-7, -0x1.ee6d1ap-7, 0x1.e727eep-6, 0x1.54f4aep-5, 0x1.3e2abap-6, -0x1.34e206p-6, 0x1.26c74ep-8, -0x1.6c618ep-7, 
    0x1.6d8b4ep-7, -0x1.120c2ep-5, -0x1.b8469ap-7, 0x1.6a76d6p-5, 0x1.71cef4p-5, 0x1.d5118p-7, 0x1.5f2306p-5, -0x1.d68a4ep-7, 
    -0x1.1d70e4p-5, 0x1.5288e6p-8, -0x1.339534p-6, 0x1.b6b18p-8, -0x1.8f4c66p-8, -0x1.08c98p-5, -0x1.4536p-8, -0x1.6ea85ap-6, 
    0x1.3719b4p-8, -0x1.247dp-8, -0x1.23a08p-6, 0x1.4e026ep-5, 0x1.7c372ep-6, -0x1.996774p-5, 0x1.741afep-5, 0x1.03b9ep-5, 
    0x1.bf32p-9, 0x1.7a4526p-7, 0x1.3f657ep-5, 0x1.55b5eep-6, 0x1.277786p-5, -0x1.8ada6p-6, -0x1.3f924ep-5, -0x1.1fecdep-5, 
    -0x1.9057e6p-6, 0x1.47ef8p-8, -0x1.0bff34p-5, 0x1.35f02p-6, 0x1.fb8c26p-6, -0x1.86adep-5, 0x1.6ccc1ap-5, 0x1.834f9ep-5, 
    -0x1.7e63dap-6, 0x1.145434p-7, 0x1.562ccep-12, -0x1.553486p-5, 0x1.bb3eb4p-7, 0x1.892b86p-5, -0x1.d583dap-7, -0x1.c036a6p-6, 
    0x1.2f65cep-6, -0x1.2e2706p-6, 0x1.fed154p-6, -0x1.5d10c4p-5, 0x1.9b689ap-7, 0x1.f24114p-6, 0x1.61a3cep-9, -0x1.e53046p-6, 
    0x1.3b3766p-7, 0x1.4af966p-6, 0x1.5b8514p-6, -0x1.077e2p-6, -0x1.fc14dap-7, -0x1.99d19ap-12, 0x1.cfc64ep-8, -0x1.b74ddap-6, 
    0x1.e968e6p-8, -0x1.4359e6p-5, 0x1.8f9294p-5, 0x1.66cccep-10, -0x1.46396p-6, 0x1.949f7p-5, -0x1.128a8ep-7, -0x1.f3dccep-11, 
    -0x1.770c46p-5, -0x1.1b9e9ap-8, 0x1.886abap-5, -0x1.aebbep-6, 0x1.143856p-5, 0x1.22f4d4p-6, -0x1.985326p-7, -0x1.2459cp-7, 
    -0x1.8173d4p-6, 0x1.f4152ep-6, 0x1.a9adcep-6, 0x1.8ac686p-6, -0x1.ac448ep-6, -0x1.5010cep-10, 0x1.90fecap-5, 0x1.316fdap-7, 
    -0x1.7bc666p-12, 0x1.094e54p-6, 0x1.572634p-8, 0x1.841cd4p-5, -0x1.385dcep-8, 0x1.49a7p-8, 0x1.1b7e1ap-7, -0x1.0a33f4p-7, 
    0x1.987184p-5, 0x1.c9863ap-6, 0x1.0a0736p-5, -0x1.7ae766p-7, 0x1.8200dap-6, 0x1.48e766p-9, -0x1.7d0b14p-6, 0x1.482a76p-5, 
    -0x1.7548aep-6, -0x1.5b0c5p-5, 0x1.453c34p-6, -0x1.9aa52p-6, 0x1.d2b52p-6, 0x1.3b5cb4p-7, 0x1.cb69f4p-6, -0x1.768504p-5, 
    -0x1.f4ef6ep-6, -0x1.0a657ap-5, 0x1.a3eb9ap-10, 0x1.4e8e14p-5, -0x1.3afe3p-5, -0x1.690bdp-5, 0x1.491faap-5, -0x1.6c97fap-6, 
    -0x1.30c594p-6, -0x1.01b6aep-6, 0x1.8efccep-7, -0x1.7185b6p-5, -0x1.c39406p-6, 0x1.cd4994p-6, 0x1.6449d4p-6, 0x1.9ae8f4p-7, 
    -0x1.28b2a4p-5, -0x1.abb4dap-7, -0x1.34ea6p-6, -0x1.fda94ep-7, -0x1.e1156ep-6, -0x1.d5f1f4p-7, -0x1.460be6p-8, -0x1.ba1c8ep-7, 
    -0x1.5c1ecep-9, 0x1.590e2p-6, -0x1.0a8f34p-6, -0x1.4cacp-8, 0x1.2298p-11, -0x1.42214ep-6, 0x1.affacp-6, 0x1.e61e66p-10, 
    0x1.631c8p-5, 0x1.ca1fa6p-7, 0x1.c34e8p-6, -0x1.3ae39ap-7, -0x1.46c376p-5, 0x1.6ed626p-5, 0x1.7d7af4p-5, 0x1.7c0bp-5, 
    -0x1.9505dap-5, 0x1.1c202ap-5, -0x1.4ab8b4p-5, -0x1.71da9ap-5, 0x1.a81834p-6, 0x1.4bbbep-5, 0x1.46b1c6p-6, -0x1.0979dep-5, 
    0x1.b9d766p-8, 0x1.26747p-5, 0x1.7bb426p-6, 0x1.cf9b8ep-6, 0x1.68856p-6, -0x1.0524ap-6, 0x1.c7877ap-6, -0x1.530974p-5, 
    0x1.074d3ep-5, 0x1.69c04ep-7, 0x1.0f68p-12, 0x1.3d7c9ap-9, 0x1.0c3a14p-5, -0x1.3a4ca4p-5, -0x1.4805b4p-5, 0x1.8d7b9ap-9, 
    0x1.ec04p-10, 0x1.39b4dp-5, 0x1.428a34p-6, -0x1.2bd04ap-5, -0x1.39ba4ep-5, 0x1.75e89p-5, 0x1.27d64ep-8, 0x1.8a590ep-7, 
    0x1.d6deaep-6, -0x1.120304p-5, -0x1.41e7dap-5, -0x1.8a033p-5, 0x1.3b34f4p-5, 0x1.134cap-6, -0x1.ff7d0ep-7, 0x1.a3991ap-6, 
    -0x1.89751ap-7, 0x1.de26p-8, -0x1.22471ap-5, 0x1.faf0fap-6, 0x1.37e8p-11, 0x1.31d1aep-6, -0x1.5d6cb4p-5, -0x1.6b59eep-5, 
    -0x1.8f34f4p-5, -0x1.ba2d26p-7, -0x1.2e2486p-5, 0x1.34139ep-5, -0x1.995cfp-5, 0x1.20c7e6p-5, -0x1.871f7ap-5, 0x1.03cacep-6, 
    -0x1.2e81dep-5, 0x1.8fde6p-6, -0x1.e06634p-8, 0x1.66e6p-10, -0x1.93ffd4p-5, 0x1.893276p-5, 0x1.463b8p-6, 0x1.7cfd8p-6, 
    -0x1.56b334p-14, -0x1.7223a6p-5, -0x1.87af66p-6, 0x1.9b8b14p-6, -0x1.d819a6p-6, -0x1.6cb526p-6, -0x1.4f1ea6p-6, -0x1.57324ep-7, 
    0x1.1e5b8p-7, 0x1.b54674p-6, 0x1.caa4cep-6, -0x1.7630bap-5, 0x1.7dde3ap-5, 0x1.e8268ep-7, 0x1.72b06ep-6, -0x1.972be6p-6, 
    0x1.13d7ep-5, -0x1.7f4e86p-5, 0x1.7c05d4p-6, 0x1.71011ap-7, 0x1.6bf34ep-8, -0x1.590be6p-5, -0x1.96479ap-6, -0x1.b02p-14, 
    -0x1.fc7ecep-6, -0x1.84c67ep-5, 0x1.4c14ap-5, -0x1.2cdb44p-5, -0x1.9b7c94p-6, 0x1.9634f6p-5, 0x1.7343f4p-7, -0x1.73c64p-5, 
    0x1.1555aep-6, 0x1.dd77eep-6, -0x1.751a24p-5, -0x1.32028p-5, 0x1.f96e4ep-7, -0x1.44158p-6, 0x1.09396ap-5, 0x1.fbb3p-7, 
    0x1.96178ep-5, -0x1.f03b4ep-8, 0x1.98190ep-6, -0x1.814a5ep-5, 0x1.31705p-5, -0x1.7798fep-5, -0x1.1f0166p-7, 0x1.46624p-6, 
    -0x1.5161dap-7, -0x1.93ed1p-5, 0x1.25a73p-5, -0x1.29c466p-6, -0x1.36c84ep-5, -0x1.f8d1a6p-7, -0x1.0fe7dep-5, 0x1.759acep-7, 
    0x1.60a21ap-6, -0x1.00b08ep-7, 0x1.83b8cep-11, 0x1.c6c7p-6, -0x1.12466ep-6, 0x1.2ddf26p-6, 0x1.8e91ap-6, -0x1.8e4e86p-6, 
    0x1.afcc66p-10, 0x1.62f19ap-12, -0x1.6bb4cp-6, 0x1.2bc64p-5, 0x1.31f6bap-5, 0x1.ed644p-6, -0x1.b105d4p-6, -0x1.9129aap-5, 
    0x1.16f97ep-5, -0x1.3560ap-6, 0x1.3188e6p-8, -0x1.41ea06p-6, 0x1.33a3fap-6, 0x1.fd1e26p-7, -0x1.9271cep-8, 0x1.c858ep-6, 
    0x1.bd8f8ep-6, -0x1.ceb1aep-6, -0x1.efa766p-9, -0x1.a91c26p-7, 0x1.654e6ep-6, -0x1.2e7c7p-5, -0x1.adfa54p-6, -0x1.39a704p-5, 
    0x1.d54666p-9, -0x1.6960f4p-5, -0x1.4f3d16p-5, 0x1.0b987ap-5, -0x1.8624cep-10, -0x1.8a610ep-5, 0x1.694e4p-7, -0x1.04143p-5, 
    -0x1.1fc4eep-5, 0x1.8cc3cep-6, 0x1.4a8ccep-9, -0x1.72cbd6p-5, 0x1.0062dap-7, 0x1.05fd54p-5, -0x1.e2618p-7, 0x1.74c73ap-6, 
    0x1.1b511ap-8, 0x1.c50fep-6, -0x1.92963ep-5, -0x1.5ec20ap-5, -0x1.a930a6p-7, -0x1.875a4p-5, -0x1.518c94p-5, -0x1.293286p-6, 
    -0x1.591526p-6, -0x1.acaa66p-11, 0x1.572a8ep-6, -0x1.8668a6p-7, -0x1.603d34p-7, 0x1.d472c6p-6, -0x1.7ac7dap-6, 0x1.8662e6p-5, 
    0x1.ff464ep-7, -0x1.27a974p-7, -0x1.504174p-6, 0x1.c70026p-6, -0x1.7ca9ep-6, 0x1.98085ap-7, 0x1.36642ap-5, -0x1.9331fep-5, 
    -0x1.16e134p-6, -0x1.5ac68ap-5, 0x1.74223ap-5, -0x1.9210b4p-8, -0x1.7ffddap-7, 0x1.38551ap-7, 0x1.a65d9ap-9, 0x1.59a16ep-6, 
    -0x1.05a43ep-5, 0x1.8c8546p-6, 0x1.a1af66p-9, 0x1.632054p-6, 0x1.15d95ap-5, 0x1.548e04p-5, -0x1.e7e78p-8, -0x1.76bccep-12, 
    0x1.b0818ep-7, -0x1.1b677ap-5, -0x1.5ce4aep-6, 0x1.506a16p-5, -0x1.9c139ap-6, 0x1.a54066p-7, 0x1.8cd18p-6, 0x1.ce755ap-7, 
    -0x1.1507p-7, -0x1.5462cep-7, 0x1.a69d7ap-6, 0x1.d287c6p-6, 0x1.98cdcp-5, -0x1.f9ceep-6, 0x1.1c831ap-6, 0x1.716006p-5, 
    -0x1.4474f6p-5, -0x1.16686ap-5, 0x1.660224p-5, -0x1.8ee5e6p-6, 0x1.926bdap-5, -0x1.311d64p-5, -0x1.817d5ap-6, -0x1.5b8126p-6, 
    -0x1.1886eep-5, 0x1.4cf7bep-5, 0x1.dce4e6p-6, -0x1.58436ep-5, -0x1.40891p-5, 0x1.777f74p-7, -0x1.b2cdp-8, 0x1.34613ap-6, 
    -0x1.5945b6p-5, 0x1.0bb586p-6, -0x1.73d034p-7, 0x1.251b7ap-6, -0x1.2aea74p-7, -0x1.3e344p-7, -0x1.4383bap-6, 0x1.3a05dap-7, 
    -0x1.32dbdap-7, 0x1.e141d4p-6, -0x1.e1e8p-6, 0x1.bc17f4p-6, -0x1.1f2c4p-5, 0x1.5dfb86p-5, 0x1.374f66p-7, -0x1.b1758ep-6, 
    0x1.2e5774p-7, -0x1.60cefep-5, -0x1.1838eap-5, -0x1.85391ap-8, -0x1.6a5b1ep-5, 0x1.01036p-6, 0x1.6da87p-5, 0x1.8433eep-6, 
    0x1.c355bap-6, -0x1.a14306p-6, 0x1.35af9ap-9, -0x1.5b22d6p-5, -0x1.8f48ap-6, 0x1.e6884ep-6, 0x1.1cc806p-6, -0x1.48286ep-5, 
    0x1.81cf9ap-10, 0x1.706676p-5, 0x1.327c2p-5, -0x1.06115ap-5, -0x1.7f3e4ep-8, -0x1.d5ac46p-6, 0x1.31212p-6, -0x1.50d7ap-6, 
    0x1.0db9p-9, -0x1.3435eap-5, -0x1.0839bep-5, 0x1.9fb334p-11, -0x1.739136p-5, 0x1.9933d6p-5, -0x1.fa66p-10, -0x1.0c81eep-6, 
    -0x1.fc3e74p-7, 0x1.892366p-9, -0x1.343d4ap-5, 0x1.29cc0ep-7, -0x1.c4dc8p-6, 0x1.5fca94p-5, 0x1.f5864p-7, -0x1.868e26p-6, 
    0x1.5838fp-5, 0x1.ca41cp-7, -0x1.757dap-6, 0x1.88302ep-6, -0x1.df635ap-6, 0x1.3ef106p-5, 0x1.62f15ap-6, -0x1.33eccep-11, 
    -0x1.c0f034p-9, -0x1.f26b9ap-7, -0x1.2faa66p-7, 0x1.13c24p-7, 0x1.1848dap-6, -0x1.989e0ep-6, 0x1.40cb14p-6, -0x1.eb0a1ap-8, 
    -0x1.4fa8p-9, -0x1.0e7a9ap-7, 0x1.a02c6ep-6, 0x1.ae9p-12, -0x1.21b734p-9, -0x1.47b58p-8, 0x1.68b606p-6, 0x1.2216b4p-7, 
    -0x1.212e5ep-5, 0x1.c99c74p-6, -0x1.73fc0ap-5, -0x1.81928ep-5, 0x1.1a22e6p-7, -0x1.2ca126p-6, 0x1.41b5aep-6, 0x1.46a334p-13, 
    0x1.d0f854p-6, -0x1.3a6396p-5, -0x1.3309cap-5, -0x1.15cf06p-5, 0x1.36bcf4p-6, -0x1.dcf62p-6, 0x1.55d55ap-5, 0x1.4fd1dap-6, 
    0x1.d538aep-6, -0x1.1583ep-5, -0x1.5ab026p-7, 0x1.780cp-8, -0x1.468d4ep-6, 0x1.1402fap-6, 0x1.e9cc2p-6, 0x1.d11ce6p-6, 
    0x1.9dae9ap-6, 0x1.8b43dap-5, -0x1.d61cp-7, -0x1.2a639ap-5, -0x1.3a290ep-7, -0x1.70b2bap-6, -0x1.add1eep-6, -0x1.849774p-5, 
    0x1.ba0334p-13, 0x1.6e9da4p-5, 0x1.91c61ap-7, 0x1.78f14ap-5, 0x1.07b06ap-5, 0x1.510e0ep-5, 0x1.182806p-6, -0x1.17878ep-6, 
    -0x1.b29aeep-6, 0x1.5b5cp-11, 0x1.08d3b4p-5, 0x1.8489fep-5, 0x1.3fbe3ap-5, 0x1.72ef9p-5, 0x1.3d871ap-7, 0x1.32d8cp-5, 
    -0x1.2cdfcp-6, 0x1.079ff6p-5, 0x1.ac0eep-6, 0x1.1925a4p-5, 0x1.361f94p-5, 0x1.6b6766p-9, -0x1.6a997ap-5, 0x1.0a826ap-5, 
    -0x1.205aa6p-5, -0x1.a03bep-6, 0x1.2d1a66p-7, 0x1.ad1d2ep-6, 0x1.567f3ap-5, -0x1.4a33p-6, -0x1.991834p-8, -0x1.8badaap-5, 
    0x1.d1cf4ep-6, 0x1.8fdbf4p-7, -0x1.3f961p-5, 0x1.5393cep-6, -0x1.c16a8ep-6, -0x1.25cf3ap-6, 0x1.7015a6p-7, -0x1.5df8aap-5, 
    -0x1.338d34p-8, -0x1.ab0bf4p-7, -0x1.ef4334p-12, 0x1.8e4db6p-5, 0x1.71fcbp-5, 0x1.8bfae6p-6, -0x1.d290cep-11, 0x1.1c11f6p-5, 
    0x1.3f1186p-5, 0x1.074f9ap-10, -0x1.ce9c06p-6, 0x1.32eeeep-5, -0x1.d9314ep-6, -0x1.143026p-5, -0x1.cb038p-7, -0x1.8b8666p-6, 
    -0x1.c93acp-6, -0x1.cd8f34p-6, 0x1.57e676p-5, 0x1.81ec5ap-5, 0x1.2b53b4p-7, -0x1.8872fap-5, 0x1.81ce9ap-6, 0x1.c168cep-8, 
    0x1.f675cep-7, -0x1.413cep-6, 0x1.56f35ap-6, 0x1.46491ap-5, 0x1.400696p-5, -0x1.3534b6p-5, -0x1.4c57aap-5, -0x1.7dbfe6p-7, 
    -0x1.40bfdep-5, -0x1.a611p-8, -0x1.f61734p-7, -0x1.757534p-10, -0x1.9ff586p-6, 0x1.b1d77ap-6, -0x1.e4ff9ap-7, 0x1.f7d5b4p-7, 
    -0x1.79e08ep-7, -0x1.7f62f4p-5, 0x1.7e541p-5, 0x1.033a5ep-5, -0x1.a2424p-6, 0x1.f6c38ep-7, 0x1.67d3e6p-5, 0x1.e7a12p-6, 
    -0x1.61742p-5, 0x1.664674p-7, -0x1.546dp-5, 0x1.99ab8p-6, 0x1.425b2ap-5, 0x1.2c55p-9, 0x1.69e196p-5, 0x1.5c338ap-5, 
    0x1.e0c98p-8, -0x1.9785aap-5, 0x1.f6ad7ap-6, 0x1.cf44cp-6, -0x1.702ad6p-5, -0x1.69bf0ep-6, 0x1.5b05cep-7, -0x1.030c5ap-5, 
    0x1.3bdc66p-5, -0x1.5f0bcp-5, 0x1.542cfap-5, 0x1.7ee38ap-5, 0x1.8b78cep-6, -0x1.13d6f6p-5, 0x1.10b966p-5, -0x1.79409ap-7, 
    0x1.18371ap-5, -0x1.dfe39ap-8, 0x1.493ceap-5, 0x1.317a14p-5, -0x1.5cdba6p-7, -0x1.adacb4p-7, -0x1.51ae7ap-5, 0x1.67fb26p-5, 
    -0x1.1c0a2ap-5, 0x1.3d7d1ap-7, 0x1.59299ap-12, 0x1.33cfcp-7, 0x1.2be93ep-5, 0x1.b0e526p-6, 0x1.7f404ep-7, 0x1.37208ep-6, 
    0x1.e72d5ap-7, -0x1.c84baep-6, -0x1.2ed506p-5, 0x1.be03p-8, -0x1.40b0dap-5, 0x1.299b5p-5, 0x1.21f274p-5, 0x1.53637p-5, 
    -0x1.52a20ep-6, -0x1.34dac4p-5, 0x1.c0d0e6p-6, 0x1.1ae8eep-6, -0x1.bc21cp-6, -0x1.904e44p-5, 0x1.6c364p-5, 0x1.d63a9ap-8, 
    -0x1.784d3ap-6, 0x1.3f143ap-5, -0x1.93b9fp-5, -0x1.1dc794p-5, -0x1.27fdap-5, 0x1.e06a4ep-6, 0x1.0da146p-5, -0x1.88133ap-6, 
    -0x1.6356b4p-6, 0x1.1da65ap-5, -0x1.110ca6p-7, -0x1.22ba66p-10, 0x1.4f06e4p-5, 0x1.b4b4p-7, -0x1.9885cap-5, 0x1.0dae6ep-5, 
    -0x1.1165fp-5, -0x1.f825p-9, 0x1.3e0474p-7, 0x1.6be78ep-6, 0x1.f6f574p-6, 0x1.4e73ep-6, -0x1.200acep-7, -0x1.1cbd3ap-6, 
    0x1.a3640ep-6, -0x1.c30dcep-6, 0x1.cf57cep-7, -0x1.894f4ep-8, 0x1.210a4ep-6, 0x1.12f7aap-5, -0x1.4d8414p-6, -0x1.8976ep-5, 
    0x1.41d636p-5, -0x1.6b7efp-5, -0x1.7e033ep-5, 0x1.a3e54p-7, 0x1.1ff046p-5, 0x1.287b8p-5, 0x1.804d94p-6, 0x1.75cc4ep-6, 
    -0x1.1d3a44p-5, 0x1.5b98b4p-5, -0x1.36389ap-7, -0x1.f210cp-7, -0x1.b072cp-6, 0x1.04a4cp-6, 0x1.6bd89p-5, -0x1.2e405ap-7, 
    0x1.8b78cep-7, 0x1.d6aa4ep-8, -0x1.ae7fe6p-7, 0x1.4e34aep-5, 0x1.15b826p-5, 0x1.100bp-7, -0x1.7694cep-9, -0x1.907b34p-11, 
    -0x1.52a4b4p-5, 0x1.f0a02ep-6, -0x1.70db4p-5, 0x1.a0b366p-8, 0x1.833266p-6, 0x1.03ae1ap-8, 0x1.a23e86p-6, -0x1.3b4cfap-6, 
    -0x1.8c7c9ap-7, -0x1.81876p-5, 0x1.06a554p-5, 0x1.548366p-7, -0x1.f3acp-7, 0x1.136aaep-5, 0x1.451b8ep-7, 0x1.309b54p-5, 
    0x1.011d76p-5, -0x1.ff5826p-6, 0x1.31ed6p-5, 0x1.bce6cp-7, -0x1.2fb11p-5, -0x1.e1a00ep-7, -0x1.1112f4p-5, 0x1.714404p-5, 
    0x1.83c644p-5, -0x1.6c5acap-5, -0x1.21e784p-5, -0x1.1f0f0ep-6, -0x1.66e026p-6, 0x1.1e50dap-7, -0x1.8eb98ep-6, -0x1.4f6004p-5, 
    0x1.2a9d7ap-6, 0x1.4f88eap-5, -0x1.4fd594p-5, 0x1.241fbap-6, -0x1.105dfep-5, -0x1.25fffap-6, -0x1.1cb78p-5, -0x1.810fbap-6, 
    -0x1.7886p-7, -0x1.78c3aep-6, -0x1.4e150ap-5, 0x1.3b98p-10, 0x1.28c2p-8, -0x1.373a4ep-8, 0x1.7fc89ap-7, 0x1.98c466p-5, 
    0x1.6f5e7p-5, 0x1.b7ca9ap-6, 0x1.19637ep-5, 0x1.2ef086p-6, 0x1.3b6fdp-5, 0x1.4b015p-5, 0x1.c4b4cep-9, -0x1.50884ep-8, 
    0x1.bd9aeep-6, 0x1.2c2d9ap-7, 0x1.e4e0cep-8, -0x1.68a30ap-5, 0x1.2bf7b4p-7, -0x1.3a385ap-6, 0x1.a3fe34p-9, -0x1.94d07ap-5, 
    0x1.70dc4ep-7, 0x1.02bbcp-5, 0x1.6ffb54p-6, -0x1.ee82bap-6, 0x1.80c19ap-9, 0x1.26b034p-5, -0x1.397226p-5, 0x1.d9a694p-6, 
    0x1.5f16b4p-8, 0x1.bdc5b4p-7, 0x1.7770e6p-8, -0x1.01eddap-6, 0x1.a6d0ap-6, 0x1.269a5ap-6, -0x1.9023cep-8, 0x1.84586ep-6, 
    0x1.9c59p-8, 0x1.93a626p-5, 0x1.8900f4p-6, -0x1.a0a0c6p-6, 0x1.724be6p-6, 0x1.bad4p-10, -0x1.046686p-5, 0x1.88974p-5, 
    -0x1.cfb64ep-8, 0x1.68b3aep-6, -0x1.fa8f66p-8, -0x1.2a9e26p-6, -0x1.873e36p-5, 0x1.63e634p-8, -0x1.c7e5f4p-7, 0x1.3915b4p-5, 
    0x1.97359ap-9, 0x1.86b64ap-5, 0x1.28c5c4p-5, 0x1.2cb4cep-10, -0x1.59084ep-5, 0x1.4d80bep-5, -0x1.324566p-6, -0x1.3fa6dap-6, 
    0x1.c59814p-6, -0x1.04df8ep-6, 0x1.d0338ep-6, -0x1.87ffp-9, -0x1.9c3f34p-9, -0x1.63d29ap-7, -0x1.c7ba5ap-6, 0x1.ff535ap-7, 
    -0x1.064736p-5, -0x1.788e5ap-7, -0x1.1b218p-5, 0x1.06b8a4p-5, 0x1.501a16p-5, 0x1.0d96e6p-8, 0x1.64224ep-6, 0x1.d54bb4p-8, 
    -0x1.cd170ep-7, -0x1.4627ap-6, 0x1.3c30e4p-5, 0x1.6ead4ep-5, -0x1.0623bap-6, -0x1.520d9p-5, -0x1.3f9a34p-7, -0x1.70d26ep-6, 
    0x1.8a924p-6, 0x1.96db3ap-5, 0x1.20d86ep-5, 0x1.74274p-5, 0x1.a4ec8ep-6, 0x1.511bap-6, 0x1.4028fp-5, 0x1.721dp-7, 
    -0x1.0a1966p-5, 0x1.4b98e4p-5, 0x1.8675ap-5, -0x1.2811cep-7, 0x1.135d8ep-6, 0x1.6b3ce6p-8, 0x1.15cc0ep-7, 0x1.5ab594p-5, 
    -0x1.9eecp-9, 0x1.147676p-5, -0x1.d9cb9ap-6, 0x1.70c476p-5, -0x1.db718p-7, 0x1.f1776p-6, -0x1.560d2ep-6, 0x1.2cecbap-5, 
    0x1.e2f766p-6, -0x1.3525eep-5, 0x1.57374ep-8, 0x1.98c4dep-5, -0x1.48ff7ep-5, -0x1.823f66p-7, -0x1.6a175ap-5, -0x1.885a66p-6, 
    0x1.0d48ap-6, 0x1.2b7c7ap-6, -0x1.0017f6p-5, 0x1.723544p-5, 0x1.f2286ep-6, -0x1.ad9f4p-6, -0x1.fd8b06p-6, -0x1.72c074p-7, 
    -0x1.5fb454p-6, 0x1.2c7e46p-5, -0x1.765766p-7, 0x1.fdd654p-6, 0x1.d11feep-6, 0x1.5f1606p-6, 0x1.57cb66p-5, 0x1.313dep-5, 
    -0x1.487e8ep-7, -0x1.c43be6p-8, 0x1.ff5ff4p-7, -0x1.a76dc6p-6, 0x1.37f384p-5, 0x1.3408d4p-6, -0x1.65f42ep-6, 0x1.283ac6p-5, 
    -0x1.7e3b3ap-6, 0x1.fed86ep-6, -0x1.34db4p-5, -0x1.d819p-8, -0x1.9b721ap-6, 0x1.32dbcep-7, -0x1.2f9e76p-5, 0x1.210d6ap-5, 
    0x1.04c1p-6, -0x1.00ecfap-5, -0x1.d50a3ap-6, -0x1.a20a8ep-6, 0x1.56e434p-8, 0x1.82551p-5, -0x1.bb0134p-9, 0x1.f9a734p-8, 
    -0x1.5ffd2ep-6, 0x1.e12f94p-6, -0x1.e86754p-6, 0x1.75293ep-5, -0x1.6d771ap-7, -0x1.b30a8p-8, -0x1.85e806p-5, 0x1.68b146p-5, 
    0x1.68cdaep-6, -0x1.3045p-8, 0x1.20916p-5, 0x1.3a3e9ap-5, -0x1.8c94e4p-5, 0x1.bbdap-8, 0x1.0b43e6p-7, -0x1.de59e6p-6, 
    0x1.9d88e6p-8, -0x1.edd5dap-7, 0x1.2d791p-5, 0x1.1fc3cp-6, -0x1.198ba6p-6, -0x1.257a6ep-6, -0x1.3f7f6p-6, 0x1.5b8fdap-7, 
    0x1.06f5cep-5, -0x1.576e6ep-6, -0x1.86ccdap-7, -0x1.8d279ap-8, 0x1.550ecep-8, 0x1.50732p-5, 0x1.2850b4p-6, -0x1.0599bap-6, 
    -0x1.68f79p-5, -0x1.3f0f9ap-8, 0x1.09a0e6p-8, 0x1.4c9734p-10, -0x1.11c0aap-5, 0x1.711dfap-5, -0x1.bcedp-6, 0x1.9fcb5ap-7, 
    -0x1.2994p-11, 0x1.844c26p-7, -0x1.67e4c4p-5, -0x1.5e78c6p-5, 0x1.74ed46p-5, -0x1.0f9b7ep-5, 0x1.8870eep-5, 0x1.51d70ep-5, 
    -0x1.c5f2dap-7, 0x1.78f72p-5, 0x1.67521ap-6, 0x1.03a4dap-6, -0x1.2aa8fap-5, -0x1.356736p-5, 0x1.136d1ap-6, -0x1.b2766p-6, 
    -0x1.47acf4p-7, 0x1.bfc9dap-7, 0x1.f3e654p-6, 0x1.55b734p-6, 0x1.cfa8e6p-7, -0x1.00f56ep-5, 0x1.28af2ep-5, 0x1.f780b4p-8, 
    -0x1.7a13e4p-5, 0x1.682ap-6, -0x1.bdbd34p-10, 0x1.dc078p-8, -0x1.a34e9ap-7, 0x1.ebc81ap-6, 0x1.69f64ep-8, 0x1.595996p-5, 
    -0x1.1032cep-9, -0x1.a56f6p-6, -0x1.27da74p-7, -0x1.37cccep-15, -0x1.79b4cep-5, 0x1.28588p-6, 0x1.910666p-6, 0x1.2dd91ap-6, 
    -0x1.ef611ap-8, -0x1.b173cep-8, 0x1.82bc74p-5, -0x1.cb21dap-6, 0x1.3203dap-7, 0x1.83972p-5, 0x1.74e03ep-5, -0x1.8273bap-5, 
    -0x1.aedfaep-6, -0x1.2228cp-5, -0x1.93f69ap-5, -0x1.0ad57ap-6, 0x1.75d12p-5, 0x1.11299ap-11, -0x1.e0dd4ep-8, 0x1.99122ap-5, 
    -0x1.6efeeep-6, 0x1.446efap-6, 0x1.4228bap-5, 0x1.2031b4p-5, 0x1.105866p-7, -0x1.8baa14p-5, -0x1.70214ep-7, 0x1.3e5db4p-8, 
    -0x1.a3fe66p-6, -0x1.aeceep-6, 0x1.fcd834p-7, -0x1.5bda66p-7, -0x1.89d1aep-6, -0x1.97ab3ep-5, -0x1.e0bfb4p-8, -0x1.f105f4p-6, 
    0x1.88f3ap-6, 0x1.8856f4p-7, -0x1.91894ep-8, 0x1.9b5b8p-7, -0x1.5f4366p-6, -0x1.84d064p-5, 0x1.04c18ep-6, -0x1.157b7ap-6, 
    -0x1.a37ccp-6, -0x1.9329ap-5, -0x1.457e6ep-6, 0x1.c841b4p-8, 0x1.749ea4p-5, 0x1.7e1a66p-8, -0x1.08ed2p-5, 0x1.24e86ep-5, 
    0x1.1868cep-7, -0x1.56949ap-7, 0x1.55e2p-5, 0x1.26e65ap-7, 0x1.817p-13, -0x1.ac4a74p-6, -0x1.05bc9ap-7, -0x1.7c52f6p-5, 
    0x1.162576p-5, 0x1.dfa926p-7, -0x1.65b1bep-5, 0x1.0029cep-8, 0x1.24b28p-5, 0x1.edea66p-10, 0x1.0e0a46p-5, 0x1.6360f4p-7, 
    -0x1.6f22e4p-5, 0x1.9e4666p-13, 0x1.16382p-6, 0x1.4b6dcep-7, -0x1.27c7bep-5, -0x1.7a4dc6p-6, 0x1.704e0ep-6, -0x1.0243cep-9, 
    0x1.5cc2bap-6, -0x1.0d1b66p-7, -0x1.41ab8p-8, 0x1.65e0dep-5, -0x1.28c9bep-5, 0x1.dbfecp-7, -0x1.6015aep-5, -0x1.1f8f9ap-7, 
    0x1.c99ccep-11, 0x1.32475ap-6, -0x1.c77d66p-6, 0x1.5f775ap-5, 0x1.b0f374p-6, -0x1.0bac0ap-5, 0x1.c8a466p-7, -0x1.88809ap-6, 
    -0x1.23c4p-5, 0x1.8127a6p-7, -0x1.017dep-6, 0x1.2498e6p-6, 0x1.94d7f4p-5, -0x1.bc6326p-7, 0x1.1df5dap-5, 0x1.74fb3p-5, 
    0x1.a17854p-6, 0x1.16f4ep-5, 0x1.bd8e94p-6, -0x1.7f7666p-5, -0x1.1d0c46p-5, -0x1.5778ap-6, 0x1.09f71ap-6, -0x1.51d72ap-5, 
    0x1.7b9cdap-7, 0x1.0d8f8p-8, -0x1.5cf09ap-5, -0x1.6737b6p-5, 0x1.738cb4p-8, 0x1.15fcp-11, 0x1.90cecp-5, -0x1.d88b8p-6, 
    -0x1.f8f02ep-6, -0x1.9b771ap-7, -0x1.aa481ap-6, -0x1.b22486p-6, -0x1.c58834p-8, 0x1.63a714p-6, -0x1.288244p-5, 0x1.1f0e3ep-5, 
    0x1.3d5a06p-6, 0x1.b7a04ep-6, -0x1.213b84p-5, 0x1.63af1ap-8, 0x1.3c673p-5, -0x1.90df54p-6, -0x1.7e6f8ap-5, 0x1.6972aep-6, 
    0x1.21338ep-7, -0x1.96549ep-5, 0x1.1be7b6p-5, 0x1.2a288p-6, -0x1.dd27eep-6, -0x1.db98dap-6, -0x1.3440fap-5, 0x1.e4555ap-6, 
    0x1.958a2ep-6, 0x1.6b8584p-5, 0x1.2adee6p-6, 0x1.bf47aep-6, 0x1.2ff996p-5, -0x1.75b666p-13, 0x1.2a3d4ep-5, -0x1.5763cep-9, 
    -0x1.52c4ep-6, -0x1.2ff79ap-5, -0x1.61576p-5, 0x1.045c14p-6, 0x1.d005c6p-6, -0x1.46b84ap-5, 0x1.ddb53ap-6, 0x1.f3b0cp-6, 
    0x1.38696p-6, 0x1.e77ecep-7, 0x1.0425fap-5, -0x1.1ed5aap-5, -0x1.624ddap-6, 0x1.857acp-6, -0x1.4d1ccp-5, -0x1.7ccfp-5, 
    0x1.33f286p-6, -0x1.0817b6p-5, -0x1.457a8ep-6, 0x1.c253fap-6, 0x1.95aa26p-6, -0x1.26df9ap-8, -0x1.8de89p-5, 0x1.b5a614p-6, 
    0x1.9ad02ep-6, -0x1.5538ep-6, -0x1.091efep-5, 0x1.706e4p-7, -0x1.dd8ca6p-6, 0x1.43ap-9, -0x1.23f0a6p-6, -0x1.256404p-5, 
    0x1.a6c2e6p-6, 0x1.5eb2ap-5, 0x1.68cff6p-5, 0x1.3677e6p-5, -0x1.860666p-14, -0x1.b78b06p-6, -0x1.4cdfdep-5, 0x1.79795ap-6, 
    0x1.b9e2p-8, 0x1.f628f4p-6, 0x1.59241ap-6, 0x1.3905cep-5, -0x1.03034p-7, -0x1.755666p-7, 0x1.d64346p-6, -0x1.c1b066p-9, 
    0x1.7891c6p-5, 0x1.8035d4p-6, -0x1.146ddp-5, -0x1.0dfeep-5, 0x1.a636ap-6, 0x1.703b8p-5, -0x1.67c01ap-8, -0x1.2f78cep-6, 
    0x1.ca0654p-6, -0x1.646936p-5, -0x1.3294p-7, -0x1.948f2ep-5, -0x1.094fc6p-5, -0x1.8d7c66p-7, 0x1.14b59ap-7, 0x1.d58fdap-7, 
    -0x1.14925ap-7, 0x1.6c4cap-6, -0x1.012f8p-6, -0x1.0532p-10, 0x1.13ec4p-6, -0x1.3c5ef4p-6, -0x1.b6b5eep-6, -0x1.348b8ep-5, 
    0x1.05a2a6p-6, -0x1.87284ep-5, 0x1.2566b4p-6, -0x1.6ee35ap-6, -0x1.6a8e9p-5, -0x1.90369ap-6, 0x1.b7758p-6, 0x1.6831a6p-7, 
    0x1.1df066p-6, 0x1.88edd6p-5, -0x1.5fb5a6p-6, -0x1.370554p-5, 0x1.0b7c34p-8, -0x1.2f823ap-5, 0x1.623efep-5, 0x1.b0392ep-6, 
    -0x1.14e52ap-5, -0x1.93d934p-7, 0x1.898d66p-5, 0x1.67e19ap-6, -0x1.276726p-6, 0x1.ac404p-7, 0x1.6147e4p-5, 0x1.9ada3ap-6, 
    0x1.2205c6p-5, 0x1.ab1aep-6, -0x1.58d67ap-6, 0x1.8b3b4ep-8, 0x1.d03fb4p-6, 0x1.382edap-5, -0x1.e425eep-6, 0x1.2d79dap-6, 
    -0x1.78343p-5, -0x1.2f73fp-5, -0x1.ff2dcep-9, -0x1.6d62dap-6, -0x1.9d8c66p-6, -0x1.5066fap-6, -0x1.57588p-6, 0x1.9ac234p-9, 
    0x1.a20766p-6, 0x1.27e914p-5, -0x1.d04e46p-6, 0x1.501d8p-7, -0x1.2f5e9p-5, -0x1.2b711ap-6, -0x1.2a32eap-5, -0x1.8f73dp-5, 
    0x1.95a726p-7, 0x1.373794p-5, -0x1.24bdc4p-5, -0x1.872346p-6, 0x1.1ef986p-6, 0x1.12c246p-6, -0x1.5f1ae6p-8, -0x1.e1d21ap-7, 
    -0x1.873f4p-6, -0x1.0248cep-7, 0x1.cc399ap-11, 0x1.27a40ep-6, -0x1.0a476ep-5, -0x1.1879fap-6, -0x1.60f556p-5, -0x1.66cd86p-5, 
    0x1.6a1026p-5, 0x1.f2e94ep-6, -0x1.5f3d04p-5, -0x1.4ad0eep-5, -0x1.127e5ap-5, 0x1.68f0b6p-5, -0x1.346bcp-6, -0x1.3edfcep-7, 
    -0x1.b4eda6p-6, -0x1.f4aep-8, 0x1.8284cp-5, 0x1.42a374p-5, 0x1.02572ep-6, 0x1.6bc14p-5, -0x1.8648a4p-5, 0x1.fead8p-7, 
    0x1.3d3b6p-6, 0x1.686234p-5, 0x1.4f4274p-7, -0x1.18449ap-7, 0x1.b6fddap-7, -0x1.aca2ep-6, -0x1.1fde84p-5, -0x1.bb24a6p-7, 
    0x1.69a694p-6, -0x1.81100ep-5, -0x1.71bb66p-8, -0x1.4aced4p-5, 0x1.836b3ep-5, -0x1.51912ep-6, -0x1.e76334p-10, 0x1.894cb4p-7, 
    -0x1.3babfap-6, 0x1.71ba4ep-8, -0x1.ab8b8ep-7, -0x1.96508p-5, 0x1.46fb9ap-9, -0x1.595a4ep-6, -0x1.d8499ap-11, 0x1.fbd81ap-7, 
    -0x1.68be66p-9, 0x1.36bb66p-8, -0x1.7259f4p-6, 0x1.a223e6p-6, -0x1.4d4274p-5, -0x1.1372b4p-8, -0x1.2c9a9ep-5, -0x1.39a934p-5, 
    -0x1.950de6p-5, 0x1.966fep-5, -0x1.459314p-6, -0x1.cf301ap-8, -0x1.4a5fb4p-5, -0x1.5458bap-6, -0x1.b2f2e6p-7, 0x1.1a1524p-5, 
    -0x1.4fec2ep-5, 0x1.a6f6p-10, 0x1.236ff4p-5, -0x1.2ef6d4p-6, -0x1.0cdb94p-5, 0x1.03180ep-5, 0x1.59ea2ep-6, 0x1.f82b8ep-6, 
    -0x1.75a2ap-5, -0x1.75b25ap-5, 0x1.3b87a4p-5, 0x1.045394p-5, 0x1.f0e454p-6, 0x1.afaeb4p-7, -0x1.4ed566p-5, 0x1.e1505ap-6, 
    -0x1.15e01ap-6, -0x1.6cb1a6p-6, -0x1.a3a4dap-7, 0x1.a6f51ap-6, 0x1.00b1cp-6, 0x1.b2cd66p-7, -0x1.8961aap-5, 0x1.81a96p-5, 
    0x1.2ad3a4p-5, -0x1.87220ep-6, 0x1.71eb0ep-6, 0x1.320826p-7, 0x1.e168p-8, 0x1.22544p-6, 0x1.3fcb34p-11, 0x1.779234p-6, 
    0x1.0415a4p-5, 0x1.960bp-5, -0x1.277f4ep-6, -0x1.67f09ap-6, 0x1.f99cp-8, 0x1.46eceap-5, 0x1.965294p-6, -0x1.45778p-8, 
    -0x1.072cd4p-5, -0x1.23b304p-5, 0x1.75867ap-6, -0x1.0baf4p-5, -0x1.bcd4cep-8, -0x1.204686p-6, 0x1.91d99ap-15, 0x1.77b1eep-5, 
    -0x1.7b3566p-6, -0x1.361aeep-5, -0x1.9aa9e6p-6, -0x1.34ea1p-5, -0x1.23eap-9, 0x1.23a5bp-5, -0x1.09e434p-6, 0x1.7e48cp-7, 
    0x1.45a524p-5, 0x1.38d2e6p-6, -0x1.2e9384p-5, 0x1.a6d974p-6, -0x1.60a73ap-5, 0x1.8c39ep-5, -0x1.9f27p-9, 0x1.446346p-6, 
    0x1.21dbaep-5, 0x1.4b7d4p-5, 0x1.d43826p-6, -0x1.6c0f34p-7, 0x1.b59b14p-6, -0x1.a38cp-10, -0x1.3037cep-8, -0x1.40a49p-5, 
    0x1.0680b6p-5, -0x1.e3b60ep-6, -0x1.7f019ap-10, 0x1.5963f4p-7, -0x1.d3f3bap-6, 0x1.cd8734p-11, 0x1.b772cep-6, -0x1.78d8dap-6, 
    -0x1.8bd866p-8, 0x1.ca295ap-7, -0x1.39a3b4p-6, -0x1.2761fap-6, 0x1.77769p-5, 0x1.ca493ap-6, 0x1.1f5a7ap-6, 0x1.388684p-5, 
    0x1.8abc3ep-5, -0x1.55de5ep-5, 0x1.2f70a4p-5, 0x1.22f186p-5, 0x1.56c3p-6, 0x1.9decep-6, 0x1.457b4ep-8, 0x1.54363ep-5, 
    -0x1.92c04p-5, -0x1.7a6e54p-5, 0x1.fe1ed4p-6, 0x1.93a116p-5, -0x1.0857dap-7, 0x1.4072fap-5, 0x1.c98734p-8, 0x1.63c546p-5, 
    -0x1.57ce1ep-5, -0x1.f56adap-6, -0x1.0df83ap-6, -0x1.8aefb4p-5, 0x1.aa314p-7, 0x1.122fap-5, -0x1.1463d4p-6, 0x1.158fp-6, 
    0x1.215d7p-5, -0x1.f43f66p-8, 0x1.3965dp-5, -0x1.7321p-8, -0x1.dc4894p-6, 0x1.057ep-5, 0x1.e8b3e6p-6, 0x1.7323f4p-6, 
    0x1.a6ff9ap-6, 0x1.3f716ap-5, -0x1.3ebb2p-6, -0x1.fa8666p-8, -0x1.914ddep-5, -0x1.200a4ap-5, 0x1.8ee7e6p-5, 0x1.9d3f34p-8, 
    -0x1.708c14p-6, 0x1.b3e89ap-7, 0x1.08b5b4p-8, 0x1.57792ep-5, 0x1.6d15cep-6, -0x1.02885ap-6, -0x1.71126p-6, -0x1.ef3f8p-7, 
    -0x1.b07b86p-6, -0x1.2759d4p-6, -0x1.094c2p-5, 0x1.9d0b66p-6, 0x1.1aef2p-6, -0x1.6af2ap-6, -0x1.4193aep-6, -0x1.cb978p-6, 
    -0x1.174dcep-9, -0x1.b98p-6, -0x1.441cbp-5, -0x1.390e94p-6, -0x1.5d98p-12, -0x1.7b76dap-7, -0x1.69388p-6, 0x1.c896f4p-6, 
    0x1.c17cb4p-6, 0x1.1aacb4p-5, 0x1.87c23ap-6, -0x1.e1174p-6, 0x1.d0899ap-12, 0x1.420f66p-9, -0x1.a191aep-6, -0x1.8cc1d4p-5, 
    -0x1.7c584ap-5, 0x1.5079cp-5, -0x1.1f01cp-5, -0x1.01aacp-6, -0x1.12e6aap-5, 0x1.13a134p-9, 0x1.38c03p-5, -0x1.fdb466p-8, 
    0x1.0da986p-5, 0x1.1f83p-9, 0x1.59ef44p-5, 0x1.736a34p-7, 0x1.d2078p-7, 0x1.77803p-5, -0x1.cf5506p-6, 0x1.3b32cep-6, 
    0x1.76b29ep-5, -0x1.14e22ep-5, 0x1.2ccbfp-5, -0x1.d6f99ap-9, -0x1.cce8p-6, -0x1.fec30ep-6, 0x1.8d17e6p-7, -0x1.23bcb4p-5, 
    0x1.fdc02ep-6, -0x1.da7aeep-6, 0x1.36d11ep-5, 0x1.8a436ep-6, 0x1.20368ep-7, 0x1.8p-18, -0x1.74fd74p-5, -0x1.328094p-5, 
    0x1.6f2656p-5, 0x1.0bbbdep-5, 0x1.5ef24ep-8, -0x1.336e26p-6, 0x1.f9bb4ep-8, -0x1.8ff4bep-5, 0x1.7f2886p-5, 0x1.3eb6p-6, 
    0x1.c01f1ap-7, -0x1.0ae4bap-6, 0x1.23e2c6p-5, -0x1.701c6ep-5, 0x1.f0c76ep-6, 0x1.e8ad86p-6, 0x1.a06134p-8, -0x1.006306p-5, 
    -0x1.38636ap-5, -0x1.052376p-5, 0x1.9931cp-7, 0x1.558dfap-6, -0x1.0b5424p-5, 0x1.2729e6p-8, 0x1.a83dfap-6, 0x1.1368cp-7, 
    -0x1.504afp-5, -0x1.d35cf4p-7, -0x1.ae0386p-6, -0x1.3a9274p-7, -0x1.0eea6p-5, -0x1.762894p-6, 0x1.675366p-8, -0x1.39648ep-5, 
    -0x1.7c0354p-5, 0x1.31a414p-6, 0x1.ad5b4ep-6, -0x1.c8e0cep-7, -0x1.8468bap-6, 0x1.1e6234p-9, 0x1.61a374p-7, -0x1.45f94ep-8, 
    0x1.5f87cep-9, 0x1.57836ap-5, 0x1.e7c766p-9, -0x1.ebf11ap-6, -0x1.38cdeap-5, 0x1.88141ap-6, -0x1.cd0714p-6, 0x1.87bc54p-5, 
    -0x1.2ccd2ep-5, -0x1.81d8b4p-7, -0x1.8c857p-5, 0x1.7f9acep-5, 0x1.510d24p-5, -0x1.d8e0a6p-7, 0x1.0e8e66p-7, 0x1.3211f6p-5, 
    -0x1.1b67f6p-5, 0x1.95c93ap-6, 0x1.64ac66p-10, -0x1.bf2666p-15, 0x1.677a8p-7, -0x1.63315ap-5, 0x1.0e024ep-7, -0x1.88f9cap-5, 
    0x1.2d420ep-5, -0x1.38f084p-5, 0x1.efc1p-7, 0x1.c61366p-9, 0x1.785526p-5, 0x1.08170ap-5, 0x1.af04e6p-6, -0x1.9f93ap-6, 
    -0x1.ba9194p-6, 0x1.194eaap-5, -0x1.5e3334p-12, 0x1.84b68ap-5, 0x1.fccab4p-6, -0x1.498a64p-5, -0x1.f5ep-14, 0x1.4098b4p-8, 
    0x1.0339ep-5, -0x1.58eacep-6, -0x1.fd7f54p-6, 0x1.635cc6p-6, -0x1.57dfcp-6, 0x1.b3b6d4p-6, 0x1.88f514p-6, 0x1.e8431ap-8, 
    -0x1.d6b68ep-7, -0x1.c31e8p-8, 0x1.c7f78p-6, 0x1.31542ap-5, -0x1.4444p-7, -0x1.605294p-6, 0x1.98f20ep-6, 0x1.0bccf6p-5, 
    -0x1.01b6b4p-8, 0x1.52016ep-6, 0x1.74305ap-7, 0x1.c2714ep-6, 0x1.4191p-8, 0x1.5a378p-6, 0x1.440f0ep-6, -0x1.207764p-5, 
    0x1.6e1536p-5, 0x1.067874p-6, -0x1.937b74p-6, -0x1.ed4ca6p-6, -0x1.83854ep-7, 0x1.ab088ep-6, 0x1.51af06p-6, -0x1.29439ap-6, 
    0x1.12a47ap-6, -0x1.cbb4b4p-6, -0x1.02d6bp-5, -0x1.6d7634p-6, -0x1.74694ep-8, 0x1.5d76bap-6, 0x1.58ea66p-9, -0x1.b03f2p-6, 
    0x1.ba515ap-6, -0x1.95cc4p-7, -0x1.353c0ep-6, -0x1.b79b8p-8, -0x1.ff83c6p-6, -0x1.5404e6p-8, 0x1.7789cep-8, -0x1.3d13b6p-5, 
    -0x1.9138cep-8, 0x1.a93934p-6, 0x1.9887cp-6, 0x1.61b98ep-5, 0x1.ea147ap-6, -0x1.2c5dcep-7, 0x1.8a4d0ep-7, -0x1.cc9c66p-10, 
    0x1.f6add4p-6, -0x1.1345cep-9, -0x1.fd14cep-11, 0x1.db601ap-7, -0x1.7b7aa4p-5, 0x1.3432cep-9, 0x1.018b6ep-6, 0x1.6ab4bp-5, 
    0x1.fd0bfap-6, 0x1.b5b94ep-6, -0x1.31c96p-6, 0x1.db391ap-7, -0x1.2d632ep-5, 0x1.4c36bep-5, 0x1.b0689ap-7, -0x1.77c35ap-5, 
    -0x1.296b7p-5, -0x1.f6b9cep-6, 0x1.40408ep-6, 0x1.9312c6p-6, -0x1.3bb9d4p-6, 0x1.6a6374p-7, -0x1.1c0bb4p-5, 0x1.98c276p-5, 
    -0x1.ed30cep-9, -0x1.0f15ap-5, -0x1.3bb47ap-5, 0x1.aa8666p-13, -0x1.695d6ep-6, 0x1.86686p-5, -0x1.103734p-9, 0x1.641fcep-9, 
    0x1.0a8adep-5, -0x1.71564ep-6, 0x1.8121b4p-5, -0x1.f5064p-6, 0x1.e466f4p-7, -0x1.d33a06p-6, 0x1.02f966p-7, -0x1.815704p-5, 
    -0x1.38dd96p-5, 0x1.08fc94p-6, -0x1.bbcd14p-6, -0x1.05bacap-5, -0x1.81552ep-5, 0x1.b45bd4p-6, -0x1.1e9ecep-10, -0x1.3e515p-5, 
    0x1.ae6b26p-7, -0x1.66bb4ep-8, 0x1.49fa5ap-5, 0x1.460bfp-5, 0x1.d5954ep-8, -0x1.4f072p-5, 0x1.56dea6p-5, 0x1.31178p-5, 
    -0x1.0edb8ep-5, -0x1.87631p-5, -0x1.247bbep-5, 0x1.1e23a4p-5, -0x1.7fa5fep-5, -0x1.7dd17p-5, -0x1.03c6f6p-5, 0x1.0333fap-5, 
    0x1.3b823p-5, 0x1.5ea98ep-7, 0x1.a8777ap-6, 0x1.04393ep-5, 0x1.549666p-5, 0x1.3e558p-6, -0x1.0a9ab4p-7, 0x1.6503f4p-6, 
    -0x1.1a217ep-5, -0x1.99db2p-6, 0x1.6262f4p-7, -0x1.5d7c46p-6, -0x1.e0db9ap-6, 0x1.6a2d4ap-5, 0x1.629e8p-6, 0x1.7b858ap-5, 
    0x1.08958ep-5, 0x1.38c8b4p-6, 0x1.a76974p-6, 0x1.7488cep-8, -0x1.31a4b4p-6, -0x1.5a78cp-6, 0x1.0927fap-6, -0x1.328934p-5, 
    -0x1.16c94p-5, 0x1.1c0beap-5, 0x1.1c07dp-5, -0x1.d6a5ap-6, 0x1.bbc434p-7, -0x1.8b5204p-5, 0x1.f1b474p-7, -0x1.09832ap-5, 
    0x1.b2ep-13, -0x1.d6fd5ap-7, 0x1.3fe06ap-5, -0x1.7dbcc6p-6, 0x1.2e7534p-5, 0x1.f46ccep-10, -0x1.41c35ep-5, 0x1.50173ep-5, 
    -0x1.82274ap-5, 0x1.2f4eb4p-5, -0x1.4c101ap-7, -0x1.8bce6p-6, -0x1.13fdbap-6, -0x1.5a461ep-5, 0x1.2bcb94p-6, -0x1.3fd6d4p-5, 
    -0x1.99069ap-9, -0x1.2fabcep-8, -0x1.4a544ep-8, -0x1.7f4f1p-5, 0x1.b6599ap-15, -0x1.c683d4p-6, -0x1.a89cf4p-7, -0x1.7764e6p-8, 
    0x1.48c9ep-5, 0x1.708b0ep-6, -0x1.6a9d8p-6, -0x1.e3cd74p-6, 0x1.7bcc4ep-5, -0x1.457a8ap-5, 0x1.7c64b4p-7, -0x1.2e789ap-6, 
    -0x1.4ecaep-6, -0x1.61b61ep-5, -0x1.f3fb1ap-8, -0x1.a1723ap-6, -0x1.5a6b9ap-7, -0x1.670ca6p-5, -0x1.37b8cp-6, -0x1.aae64p-7, 
    -0x1.ff08p-10, 0x1.487cb4p-8, -0x1.1e3d9ap-8, -0x1.5c4f24p-5, 0x1.c342cep-10, 0x1.b4ba8p-6, 0x1.e43866p-8, -0x1.07962p-6, 
    -0x1.0737p-6, 0x1.c2fb6p-6, 0x1.8fed4ep-5, -0x1.20a4p-11, 0x1.3ff0cp-7, -0x1.b5b69ap-7, -0x1.0047e6p-6, -0x1.5d86f4p-5, 
    0x1.4b1f66p-6, 0x1.b96e86p-6, -0x1.985afap-5, 0x1.667bcp-5, -0x1.dae5dap-6, -0x1.063346p-6, -0x1.7b8ae6p-5, 0x1.73be86p-5, 
    0x1.b9784ep-8, 0x1.4d878ep-5, 0x1.f29baep-6, -0x1.03f934p-9, -0x1.215c6ep-6, -0x1.274f8ap-5, -0x1.e2b6cp-6, 0x1.6ee466p-10, 
    -0x1.56ce1p-5, 0x1.5adb2ep-5, 0x1.5717p-5, -0x1.57eacep-7, -0x1.59f1cep-9, -0x1.af11b4p-7, 0x1.8e39b4p-8, 0x1.60f0e6p-5, 
    -0x1.42ca2p-6, -0x1.26437ap-5, -0x1.204936p-5, -0x1.33004p-7, -0x1.83c27ap-6, -0x1.8acf9ap-9, -0x1.8444cep-6, -0x1.133754p-5, 
